{"Ġroads": 9725, "Ã¨": 14064, "ĠArmour": 23752, "Ġail": 31907, "ĠPerfect": 16374, "ĠTh": 536, "Ġtactical": 16106, "ĠFortune": 20425, "Christmas": 44614, "Ġfielding": 43985, "Ġhiatus": 37009, "Ġmicrosc": 21145, "Ġdates": 9667, "ĠMilitia": 48558, "te": 660, "ĠLal": 36683, "ÃįÃį": 43569, "å£": 18004, "config": 11250, "714": 45722, "Ġpulse": 19445, "Ġherald": 28783, ">\"": 24618, "Ġlecturer": 40228, "Ġmanip": 7704, "Ġgarlic": 17644, "Ġsheriff": 16570, "itations": 20597, "Ġurine": 18922, "asures": 13846, "Young": 20917, "covered": 32111, "Past": 34533, "Ġcage": 17186, "ĠLu": 6026, "Ġslow": 3105, "ĠSpread": 31843, "Ġbenign": 32293, "Ġnorms": 19444, "Sometimes": 15468, "ĠGentleman": 42112, "Ġancestor": 31836, "onnaissance": 31539, "Ġaudit": 14984, "ĠBott": 14835, "lette": 21348, "544": 47576, "Ġdealer": 16456, "ĠSchl": 48467, "My": 3666, "uti": 47966, "Ġfeatured": 8096, "Ġwhole": 2187, "lic": 677, "Ġmalicious": 17412, "ĠOff": 3242, "ĠShim": 31698, "ĠLisa": 15378, "Ġmoment": 2589, "ĠTime": 3862, "ather": 1032, "ĠHemp": 50060, "ĠActress": 47144, "Ġbragging": 43018, "ginx": 42822, "ĠSort": 33947, "ĠMilton": 30979, "percent": 25067, "Ġrecy": 15092, "ĠSOLD": 48671, "turn": 15344, "âĤ¬": 26391, "Leader": 45009, "Ġtransporting": 32331, "Ġapr": 46593, "ni": 8461, "Ġ219": 30453, "amaru": 46893, "ĠPresidents": 35506, "Ġerect": 16417, "Ġsofter": 32359, "ģĸ": 45433, "éĽ": 37239, "ĠBe": 1355, "onsequ": 40819, "Ġredirect": 18941, "Ġbuffs": 34636, "estic": 4699, "ĠCLASS": 42715, "Ġrepresents": 6870, "ĠSons": 27989, "Ù": 149, "Ġfits": 11414, "ĠCamp": 5425, "Ġsteps": 4831, "ĠIndones": 12638, "Ġpledge": 13995, "Ġmistakes": 10135, "Ġpu": 47574, "ĠReply": 14883, "Table": 10962, "err": 8056, "Ġdemographic": 16728, "Ġinsidious": 43732, "Rex": 47389, "Port": 13924, "Ġcomfort": 4467, "Ġinvestigative": 19384, "Ġdenomin": 31457, "disc": 15410, "Ġunfinished": 34419, "akin": 27048, "ĠGenerally": 23904, "Ġsix": 2237, "ĠBudapest": 40959, "Ġhrs": 36201, "Ġgrey": 13791, "?ãĢį": 42943, "Ġpred": 2747, "Ġyelling": 22187, "Ġchampionship": 12184, "Ġwicked": 20589, "Ġprohibition": 19548, "Ġcounter": 3753, "Ġsoftened": 41534, "ĠHodg": 37480, "comes": 8988, "aspers": 49412, "adle": 35166, "Ġferry": 26450, "Ġabusing": 29170, "ĠHert": 40030, "Aud": 16353, "Insp": 41502, "Ġ351": 44417, "Ġhij": 16836, "Ġdeem": 32435, "!)": 8133, "Ġtimet": 35732, "iston": 36363, "Ġenactment": 28547, "abi": 17914, "Ġstreetcar": 49552, "ishment": 17862, "Ġsacrifice": 11728, "}\\": 32239, "ĠProgress": 18387, "Ġimg": 33705, "Ġneatly": 29776, "ĠIzzy": 46359, "went": 19963, "Ġframing": 30811, "ĠChamberlain": 45918, "imo": 25147, "Ġwrist": 15980, "Ġblasted": 26044, "Ġshoots": 20611, "Ġopens": 9808, "243": 26660, "Ġaccommodate": 15550, "beard": 39433, "arching": 38270, "ĠGrim": 17525, "ĠZi": 45643, "Iv": 45766, "aim": 1385, "Ġonto": 4291, "ĠNEVER": 33602, "ĠBlitz": 29299, "Ġresurrected": 41914, "erald": 12573, "Ġenvelope": 22878, "Ġscenic": 43251, "Ġinfinite": 15541, "Men": 10418, "ĠCOL": 20444, "ĠRW": 33212, "ĠYor": 42453, "ĠProcedures": 43698, "Town": 38097, "Ġordeal": 30600, "ĠZo": 31645, "OUN": 19385, "OPLE": 34354, "Ġmeaningful": 11570, "ppelin": 48425, "seeing": 42041, "ĠTitanic": 41184, "ĠFree": 3232, "ievers": 30296, "Ġascertain": 35520, "Ġpoints": 2173, "Ġpatrol": 13969, "1992": 23847, "ĠLair": 15067, "Ġstock": 4283, "ĠMarriott": 49722, "PHOTOS": 42709, "Ġdove": 38862, "bleacher": 47975, "Ġundis": 24149, "ĠBaseball": 17362, "ĠFlask": 46947, "Ġstudies": 3640, "tif": 49929, "Maximum": 40541, "285": 26279, "ĠAvatar": 26703, "Ġstrawberry": 41236, "ĠiPhone": 7133, "aug": 7493, "depend": 45841, "Ġfaithful": 17074, "Ġexemptions": 30244, "ĠCam": 7298, "Ġon": 319, "enz": 19471, "Ġinternally": 20947, "ĠPW": 44141, "arine": 34569, "Ġvomit": 44542, "Ġloses": 14754, "ĠDirt": 49124, "funded": 18246, "Border": 34189, "ĠUSSR": 28905, "ĠTip": 23095, "replace": 33491, "sk": 8135, "ows": 1666, "needs": 50032, "Ġcoach": 3985, "Ġapprove": 14762, "otaur": 35269, "Ġrapists": 38466, "Ġgesture": 18342, "Ġisland": 7022, "ĠRend": 28703, "aton": 13951, "olester": 15764, "Ġexert": 17596, "Ġadopt": 11206, "aura": 33830, "ĠFreder": 18669, "Ġeyes": 2951, "ĠBP": 20997, "coni": 45774, "ĠAleppo": 18593, "Krist": 40756, "ln": 18755, "papers": 40491, "Ġdeposit": 14667, "ĠAsians": 30852, "ĠNichols": 38403, "ESPN": 31730, "ĠLucky": 27963, "intel": 48779, "Ġ444": 45095, "gy": 1360, "ı": 237, "ciplinary": 29386, "Ġmotion": 6268, "ĠLift": 43711, "ĠProspect": 26736, "ple": 1154, "Ġcute": 13779, "Home": 16060, "ĠZheng": 44583, "Ġpul": 17472, "Ġ[&": 49082, "virt": 48940, "ĠBucks": 29751, "ĠBlue": 4518, "mob": 39949, "Ġactivated": 13906, "UC": 9598, "ĠCrush": 40104, "Ġversa": 25470, "ĠSYSTEM": 36230, "^": 61, "due": 23301, "NOTE": 16580, "Ġbeliefs": 9056, "Ġalbums": 16788, "ety": 2963, "Ġops": 39628, "ighty": 14400, "Ġsight": 6504, "ĠOst": 38919, "Rich": 14868, "Ġtemplate": 11055, "ĠChel": 11425, "ĠBug": 15217, "ĠLion": 15218, "Circ": 31560, "Ġbilateral": 24537, "ĠEnds": 46756, "!\".": 48220, "quite": 37121, "?????": 19622, "ia": 544, "ĠTyp": 17134, "Ġtoppled": 48757, "ĠComet": 36238, "ĠYourself": 42132, "Ġfals": 27807, "ĠOlivier": 45674, "Ġspaghetti": 48241, "Ġemer": 3165, "ĠPoc": 39375, "Ġprescribe": 32651, "sized": 13982, "ĠStevenson": 38681, "oid": 1868, "Ġunintentionally": 44793, "Ġprimarily": 7525, "ĠMoore": 8877, "ĠMoto": 23049, "ikes": 7938, "Ġrealizing": 20060, "Ġtar": 13422, "Ġdetainee": 49436, "ĠAux": 47105, "Ġviolating": 18134, "Ġexpans": 20628, "Ġphones": 9512, "Ġcampaign": 1923, "Gate": 22628, "ĠHue": 31788, "ĠFlow": 27782, "Ġdropping": 12047, "ĠTyph": 27282, "Ġlayout": 12461, "ĠMind": 10175, "Ġambush": 34298, "Strength": 45027, "ĠUAE": 29367, "ometime": 47056, "IRE": 41736, "ĠNvidia": 27699, "Ġ1886": 49539, "Ġpopulism": 47584, "ishy": 49785, "ĠJones": 5437, "Ġdawn": 17577, "ĠDeb": 8965, "Ġcollects": 26609, "Ġterror": 3246, "136": 20809, "igi": 25754, "Ġautomation": 22771, "DC": 9697, "ocalypse": 15145, "ician": 6749, "Ġcoronary": 37151, "ĠSabb": 33066, "joining": 40044, "ĠOlymp": 7001, "Ġprojections": 19887, "Ġextrad": 25963, "Ġmages": 45520, "hibition": 24108, "Vis": 15854, "ĠAthlet": 18093, "Ġexplore": 7301, "Ġsm": 895, "Ġmisunderstood": 33046, "Fif": 44403, "Ġaggress": 15786, "Ġimprovements": 8561, "Bur": 22991, "ĠâĸĪ": 23287, "84": 5705, "Ġfilthy": 35677, "Ġcondem": 8346, "ĠSTATES": 47023, "hazard": 37598, "ĠPearce": 41902, "Ġjuvenile": 21904, "ĠAmy": 14235, "ĠHardware": 28715, "Ġetiquette": 49455, "ĠSustainable": 45276, "Ġhoop": 44792, "Ġthrott": 46692, "Dec": 10707, "Ġoppression": 18345, "Ġchili": 32728, "Ġlined": 16566, "echo": 30328, "Ġflux": 28462, "UST": 7759, "Ġintend": 14765, "Ġepis": 48177, "larg": 15521, "aders": 9972, "ĠPractices": 42134, "iOS": 35742, "Ġmessages": 6218, "ĠCass": 14154, "ĠMÃ¼": 40790, "Ġobjects": 5563, "Ġprovincial": 15818, "Ġdominate": 17863, "Ġinterrogated": 49473, "Termin": 44798, "ĠCanadians": 14008, "ĠKR": 29430, "ĠOptional": 32233, "ĠNebraska": 18329, "asty": 7833, "Ġemploy": 1873, "Ġoutskirts": 30140, "Ġdock": 23423, "Ê": 134, "ĠNaz": 12819, "ngth": 11910, "ĠPromise": 34920, "Mos": 32668, "\"?": 13984, "ĠII": 2873, "uddin": 44008, "Callback": 47258, "Ġthieves": 26655, "ĠSpicer": 26242, "Ġclay": 21558, "lene": 29466, "ĠShay": 34760, "Ġfemale": 4048, "Ġdefault": 4277, "ĠPulse": 25062, "ĠMaker": 21521, "ĠIP": 6101, "Ġsystematic": 17895, "ĠGlad": 28442, "ĠStur": 26783, "Ġloudly": 23112, "ĠTechnician": 46986, "ĠSkinner": 42899, "ĠHealthcare": 30289, "ĠPIN": 34279, "Apparently": 30402, "Ġhelicopter": 15392, "Ġbounded": 49948, "Ġcondol": 35059, "vation": 10473, "Ġnegotiators": 45373, "Ġcitrus": 35405, "ĠCousins": 32644, "letcher": 29257, "Ġtroop": 31874, "oufl": 28012, "stack": 25558, "Buffer": 28632, "dor": 40180, "ĠMau": 28931, "Fail": 39044, "Ġcontingent": 25477, "Ġãĥ": 14524, "Ġsailing": 28499, "Ġhorses": 14260, "ĠMelanie": 49872, "ĠPale": 21706, "Ġlow": 1877, "Ġresponded": 7082, "ĠPhantom": 14407, "ĠSapp": 28675, "alions": 50022, "paying": 32629, "Ġgrin": 16770, "Ġorn": 25322, "audi": 31330, "Ġdebts": 20250, "ĠLuthor": 47506, "dfx": 48753, "Ġtun": 6278, "Ġproto": 44876, "Ġclarified": 28464, "ĠSweden": 10710, "ricanes": 24881, "XXX": 43145, "Ġsensitive": 8564, "ertility": 27651, "Ġshortage": 18772, "Ġabsurdity": 41793, "Ġmourning": 33404, "val": 2100, ")=": 47505, "pring": 12667, "Ġwhore": 40107, "Ġgoaltender": 44113, "LOCK": 36840, "Ġcurs": 13882, "ĠEl": 2574, "Ġmedia": 2056, "Ġmeticulous": 47628, "Ġpunishing": 28641, "client": 16366, "ailable": 1508, "Ġrecording": 8296, "ĠCrystal": 12969, "Ġadorable": 29012, "Ġcounterpart": 11283, "Ġencoded": 30240, "Ġfarmland": 45723, "osures": 16091, "Ġconnector": 21716, "Lib": 25835, "ĠLimbaugh": 43306, "You": 1639, "ĠDEA": 28647, "amoto": 25384, "Ctrl": 40069, "Ġviz": 48569, "Ġalgorith": 8385, "Ġstupidity": 37775, "Ġ2015": 1853, "ĠMandal": 41715, "Ġprudent": 34998, "Ġpreferably": 29203, "ochet": 49579, "ĠSuite": 26264, "ĠGaga": 42192, "days": 12545, "Ġscouts": 29663, "Bow": 39961, "Ġlighter": 14871, "Bright": 41267, "201": 1264, "ĠRa": 7567, "ĠWolverine": 34307, "ĠÎ¼": 18919, "TPS": 28820, "etermined": 23444, "Ġballots": 20103, "Ġillumination": 40951, "Ġhippocampus": 38587, "ĠKosovo": 37445, "ĠRobertson": 23590, "34": 2682, "Ġrequired": 2672, "ĠCLE": 30301, "Ġcongratulations": 45108, "Ġappreciated": 16373, "ĠFranÃ§ois": 50208, "Ġdisposition": 24665, "ĠDot": 22875, "ĠFrancis": 12155, "Ġtesting": 4856, "Variable": 43015, "Ġrefuses": 17567, "Ġcivilizations": 35928, "Ġshield": 7614, "irlfriend": 9872, "rompt": 45700, "Ġcervical": 36012, "Ġwaterways": 47518, "Ġplanned": 6027, "Ġmarketing": 7124, "Ġdemocratically": 48517, "ĠKumar": 26105, "Ġbutter": 9215, "Ġslipping": 29612, "Ġrefugees": 8015, "Ġ164": 25307, "ĠGER": 44186, "ĠEternal": 21475, "Ġcounselor": 31928, "Ġdeportation": 24031, "ĠDefense": 5947, "ograph": 2384, "Ġgraceful": 44363, "Ġstockp": 29534, "stal": 7757, "mittedly": 43011, "Ġjavascript": 44575, "ĠSettlement": 45404, "oliberal": 28525, "Ġinterest": 1393, "ĠThan": 17924, "ĠKitt": 43670, "Ġwealthy": 11574, "Ġwant": 765, "ĠAvailable": 14898, "ALSE": 23719, "Ġru": 7422, "Ġgive": 1577, "ĠTuls": 33219, "Ġguarded": 28178, "razy": 5918, "Ġnec": 27576, "Psy": 25918, "æĪ": 22755, "ĠGaming": 14426, "AMP": 23518, "esity": 11924, "ĠRu": 11667, "Ġstopping": 12225, "zin": 42140, "PD": 5760, "ugg": 6837, "Ġrode": 22075, "352": 33394, "unin": 38453, "ĠDwarf": 33196, "Ġ2013": 2211, "ĠSpectre": 44228, "____": 1427, "ĠBarbara": 16685, "uchin": 43416, "arity": 6806, "start": 9688, "Ġretracted": 47360, "ft": 701, "Ġscanners": 47059, "Ġdistraction": 24066, "Ġchees": 27384, "ĠWeekend": 30537, "Ġurging": 17619, "Ġintroductory": 33982, "À": 124, "ranging": 32319, "ĠUnique": 30015, "ĠPharm": 19234, "Ġresorted": 44635, "ĠVall": 46929, "umerous": 31385, "ĠNRS": 40034, "ĠProfessor": 8129, "Ġtestifying": 47952, "Ġninety": 37989, "ĠLuck": 14546, "Ġslavery": 13503, "Ġplenty": 6088, "Ġdistorted": 26987, "ently": 1473, "Ġ60": 3126, "Ġreplay": 24788, "ĠFigure": 11291, "ĠDemocr": 2459, "ĠHoward": 8442, "plete": 6677, "ĠStuart": 22559, "Ġlegislature": 15928, "ĠAdvantage": 45318, "ailed": 6255, "ĠSolidGoldMagikarp": 43453, "Ġsore": 19597, "Ġforums": 14216, "jp": 34523, "Ġbaff": 25989, "OR": 1581, "acular": 12754, "ĠMIN": 20625, "ĠAdren": 46918, "Ġquizz": 48258, "Ġlongtime": 15076, "Ġcanopy": 39418, "wit": 39289, "sat": 49720, "igroup": 47875, "ĠNext": 7406, "Ġentitled": 9080, "ĠShotgun": 34198, "ĠOEM": 29671, "Ġthumbnail": 40901, "Ġwrit": 1991, "Ġmain": 1388, "ĠCalled": 34099, "Ġwarrior": 16491, "bass": 42933, "ĠForsaken": 49116, "ĠGrimoire": 43077, "ibia": 41145, "ook": 566, "ãĤ½": 47559, "545": 45326, "Ġblackmail": 32625, "Ġtrim": 15797, "ĠWW": 13505, "Ġshort": 1790, "Ġpremie": 33050, "ĠWest": 2688, "igraph": 45920, "Ġhatch": 25834, "Ġdestro": 11411, "Ġreasonably": 13025, "Ġ65": 6135, "ĠHarper": 12686, "sv": 21370, "Ġoutside": 2354, "Ġfuss": 34297, "ĠDJs": 48644, "Ġelectrons": 28722, "Â¯": 5196, "ĠDevi": 47509, "Ġseed": 9403, "Ġmanufactures": 46306, "Starting": 22851, "Ġmag": 2153, "ĠPeace": 12689, "Ġfanatic": 43631, "hemat": 10024, "Ġsym": 5659, "eno": 23397, "Dar": 32708, "Ġ[]": 17635, "ĠMish": 39523, "ĠParticipation": 34408, "olson": 32836, "ĠClown": 36887, "Ġgrasp": 13180, "Ġwoke": 19092, "ĠAPR": 40410, "Min": 9452, "tti": 35671, "omed": 12657, "ĠIsn": 25110, "Ġroyalties": 36506, "ector": 9250, "raine": 23440, "Ġincap": 17505, "rina": 22267, "ĠAnnex": 47036, "ĠEffects": 17417, "Ġhops": 29438, "ĠLeading": 43225, "Ġobsessive": 36681, "åĤ": 43636, "ĠPersona": 41581, "ĠIng": 17589, "ĠTaiwan": 14119, "ĠPlace": 8474, "ĠPsy": 18773, "anuts": 37555, "uren": 23532, "Ġever": 1683, "ĠReality": 22520, "Ġrub": 6437, "Ġjurisd": 10376, "Ġsucceeding": 34195, "judicial": 46769, "ĠParamount": 38153, "ĠQuantity": 39789, "EED": 41841, "ĠYose": 38095, "Ġlike": 588, "Ġconfirm": 6216, "Point": 12727, "Ġconsistently": 9835, "Ġ1300": 36058, "stals": 41076, "ĠCreek": 13509, "Ġredundant": 30806, "Over": 5886, "Ġunborn": 36172, "Like": 7594, "Ġdign": 13469, "Ġchi": 33166, "Ġdraining": 35939, "ĠCon": 1482, "Ġperme": 29298, "Refer": 46238, "ornings": 28863, "ĠRachel": 15984, "andra": 15918, "fusc": 37695, "misc": 44374, "Ġtattoos": 29591, "asing": 2313, "Ġstrang": 36666, "Pe": 6435, "ĠMand": 13314, "Ġinfect": 7580, "172": 23628, "icus": 24552, "ĠConcern": 32265, "headed": 15353, "speed": 12287, "ĠOffer": 33085, "regular": 16338, "Ġdragged": 17901, "Ġruled": 8879, "Elsewhere": 49374, "adr": 41909, "ĠConstitution": 7965, "ĠContinental": 30462, "Ġank": 16553, "arijuana": 42834, "Ġantidote": 50131, "ĠTehran": 20882, "ĠGuan": 42305, "ĠLIMITED": 40880, "Ġconverge": 47873, "..": 492, "ĠLORD": 35750, "Ġprep": 3143, "ĠDefeat": 41397, "________________________": 32941, "Ġascent": 37137, "lol": 47288, "Ġhugged": 41130, "Ġtitan": 48047, "246": 26912, "Ġtire": 15867, "class": 4871, "478": 29059, "Ġvisited": 8672, "ĠWerewolf": 40261, "Ġattending": 11969, "Ġagony": 35358, "ĠNoise": 30964, "Unfortunately": 13898, "ĠMaurit": 46106, "seven": 26548, "who": 8727, "Ġoutraged": 27697, "Ġtreats": 18432, "finger": 35461, "Ġusur": 39954, "ĠBig": 4403, "ĠCheney": 31287, "videos": 32861, "Ġyearly": 24169, "achus": 9523, "itia": 36723, "ĠPierre": 21204, "Nobody": 24795, "Ġprobably": 2192, "ĠINT": 17828, "ĠCanad": 2294, "Ġ525": 45719, "Ġbeer": 6099, "ĠSteps": 32144, "ayette": 27067, "âĢķ": 31857, "kamp": 40899, "arf": 37595, "Ġdestroyed": 6572, "Ġimpaired": 22753, "č": 201, "Ġrankings": 16905, "Ky": 30630, "oard": 11953, "'/": 26488, "ĠReprodu": 36551, "Ġcontiguous": 48627, "ãģ¦": 28134, "Ġware": 16202, "ATH": 12599, "Hour": 43223, "Ġpadded": 44582, "ĠSne": 27065, "ĠChavez": 31039, "ĠFou": 34296, "ĠIb": 21089, "figure": 26875, "INE": 8881, "ize": 1096, "Returns": 35561, "iop": 14922, "Ġwon": 1839, "ĠMPEG": 41203, "Ġpreserving": 23934, "ĠWanted": 41536, "Ġtrolls": 24727, "ĠServer": 9652, "Äį": 46195, "Ġvalid": 4938, "Tam": 42061, "Ġupset": 9247, "Ġstandard": 3210, "ĠVanguard": 31507, "ĠFedEx": 45212, "izzy": 40593, "Ġwalking": 6155, "rentices": 34368, "ĠStatistics": 14370, "Ġinfertility": 47906, "avez": 28851, "ĠRoc": 13545, "ĠUT": 19255, "Ġignorant": 20109, "Ġard": 33848, "Ġfrontline": 44956, "ĠSigma": 31669, "ĠGeographic": 33636, "Facebook": 12025, "Ġaggressively": 19855, "pler": 20053, "ĠAve": 12761, "ĠVo": 20687, "Ġorchestra": 40095, "ĠShel": 15325, "Ġbeetles": 46716, "imi": 25236, "ĠHis": 2399, "ĠParsons": 35925, "ĠSERV": 42887, "Ġcritique": 19976, "247": 23753, "wild": 21992, "Ġlegislation": 5520, "ĠParks": 20604, "ãĥĦ": 41115, "atible": 16873, "Ġcommunicated": 28412, "rimp": 23750, "Ġcentury": 4289, "Ġ335": 37144, "Ġmobil": 17754, "ĠHuntington": 40644, "laws": 29317, "ophysical": 41789, "ĠNicola": 40396, "km": 13276, "Susan": 45842, "Ġreinforced": 23738, "Ġchord": 25594, "Ġ1927": 36565, "into": 20424, "ivic": 16482, "ĠRecon": 23419, "alty": 6017, "ĠWarcraft": 26952, "Ġshelves": 20726, "Ġactiv": 1753, "Kansas": 43451, "tons": 27288, "Ġspons": 7180, "Ġfought": 8350, "ĠCumm": 30316, "initely": 12998, "ĠMia": 32189, "462": 39997, "ĠPT": 19310, "Ġ208": 27121, "ĠCardinal": 25564, "Ġapproached": 10448, "Ġgre": 10536, "Ġmemories": 9846, "Ġdungeon": 18974, "ĠReck": 42331, "scoring": 46536, "Äĩ": 38325, "Ġriots": 23766, "bris": 15311, "killing": 43764, "Ġbc": 47125, "asis": 17765, "Ġthru": 33834, "ĠBarker": 36933, "scale": 9888, "Ġcitizen": 9511, "Ġeyebrow": 38220, "ĠNepal": 27026, "ĠSaiyan": 33725, "awareness": 47812, "ffee": 5853, "ai": 1872, "Ġfish": 5916, "watch": 8340, "ib": 571, "ĠDirector": 5890, "Ġ117": 19048, "favorite": 35200, "Ġachieve": 4620, "Ġsaf": 1932, "ĠTowards": 49953, "Ġcoffin": 30834, "Ġhanged": 40597, "ĠMagnet": 32079, "lr": 14050, "ĠMilan": 21574, "ĠLou": 4768, "Ġshelf": 18316, "Exec": 23002, "Ġadditional": 3224, "ĠShaman": 34805, "Ġassume": 7048, "Ġrespecting": 30796, "ĠIgnore": 41032, "ĠStrange": 16810, "oven": 16206, "Ġbatteries": 13591, "ĠCohen": 17154, "ĠPublication": 45065, "Ġprov": 899, "ĠContin": 6389, "INAL": 17961, "ped": 9124, "Rank": 27520, "ĠâĪĴ": 9746, "Ġpr": 778, "Ġplots": 21528, "Ġinhuman": 40190, "Ġis": 318, "ĠOrig": 6913, "catching": 50106, "Ġeveryone": 2506, "chedel": 24015, "Ġens": 3140, "Ġgraves": 30055, "pur": 14225, "Ġtemporarily": 13413, "Ġmod": 953, "eon": 23277, "erness": 17447, "ĠAv": 5184, "ĠRAW": 33782, "ĠDe": 1024, "Ġcompressed": 25388, "Ġdetailed": 6496, "Ġestate": 7964, "344": 33535, "ĠWoman": 14381, "ĠNeander": 38752, "Ġendorse": 11438, "acement": 5592, "Ġliteracy": 31231, "ACTION": 44710, "rencies": 14038, "¥": 98, "Ġmould": 35370, "elson": 10151, "70710": 42877, "Ġsuggesting": 9524, "Ġhypocrisy": 29442, "Ġarrested": 5169, "Ġdrone": 12170, "AMS": 40834, "Any": 7149, "utm": 26841, "ĠWeed": 43912, "zi": 17027, "Ġincre": 1253, "Equ": 23588, "Ġpave": 23000, "csv": 40664, "ĠMuseum": 9594, "DIS": 26288, "Ġoperatives": 27269, "Ġgenetically": 20807, "ĠLincoln": 12406, "Ġtextbook": 28979, "maybe": 25991, "UE": 8924, "cation": 30907, "Ġmole": 9411, "ĠOR": 6375, "Ġdemonstrations": 18721, "Ġtried": 3088, "Ġecstatic": 45782, "ĠHoly": 7439, "Ġfreelance": 27449, "Ġliked": 8288, "Ġvandalism": 37260, "Ġstint": 22966, "Ġidea": 2126, "Ġcharitable": 21803, "Ġpolicies": 4788, "Ġresidue": 35186, "ĠPriv": 9243, "ĠCosta": 18133, "ĠSoc": 3345, "ĠEssential": 36294, "Ã®": 34803, "ined": 1389, "Ġobsessed": 21366, "ĠAi": 38230, "fortune": 37359, "Ġgenerational": 48837, "ĠSummers": 36776, "urally": 20221, "Ġthickness": 20735, "Ġtravelled": 21650, "kas": 42749, "Ġrequesting": 20623, "irts": 9682, "ĠFelix": 29721, "ĠSSL": 25952, "Ġsche": 3897, "etry": 11973, "Mal": 15029, "ould": 426, "442": 39506, "Ġcounselors": 44135, "Ġbiases": 29275, "Ġpractically": 14547, "ĠNieto": 49783, "Ġunseen": 29587, "ĠBooks": 13661, "Ġabyss": 37678, "mercial": 15790, "Dialogue": 41099, "rehens": 7345, "css": 25471, "buck": 27041, "Ġabortions": 19985, "Ġbelieves": 5804, "Ġdispers": 39895, "cible": 37369, "Ġestimation": 31850, "Ġenable": 7139, "Ġworthwhile": 24769, "ĠAsia": 7229, "EFF": 37267, "ĠGry": 33958, "oft": 11205, "Ġfreeing": 35800, "ãĥĸ": 24001, "std": 19282, "ancies": 16183, "ĠBent": 20421, "Ġ(Â£": 23068, ")'": 33047, "ĠTowers": 29031, "Ġintel": 33649, "pie": 21749, "Ġlasting": 15727, "ÙĪ": 30335, "Ġdeter": 2206, "ense": 1072, "ĠOnePlus": 40518, "Pass": 14478, "Eric": 25004, "ĠEvangel": 27834, "Ġdocker": 36253, "ĠVag": 37203, "ĠRecent": 22926, "oyd": 12192, "Ġrepresentatives": 10826, "Oper": 18843, "ĠGC": 20145, "oo": 2238, "Ġdonkey": 50085, "Ġhandheld": 33811, "pac": 33587, "ifts": 19265, "dropping": 37554, "ĠZelda": 22166, "Ġcontacted": 11237, "Ġsurf": 9053, "chn": 1349, "Ġconfessed": 25623, "alling": 9221, "him": 38400, "ĠHarmony": 35088, "Ġvisions": 26096, "atum": 21307, "Ġfootwear": 43463, "ĠGeorgia": 7859, "issy": 36419, "ĠPyongyang": 21614, "Ġtrain": 4512, "ocol": 4668, "Matt": 13448, "Ġbasket": 7988, "reprene": 10406, "rit": 799, "amed": 2434, "ocated": 10533, "zbollah": 21677, "Ġperiphery": 46628, "Ġ412": 42215, "Ġoffences": 20819, "ĠNort": 15209, "RE": 2200, "Ġextraordinary": 11359, "pass": 6603, "Ġpaying": 5989, "Ġdiminish": 29889, "allas": 7826, "ĠSeriously": 27777, "Ġowning": 23107, "Ġcomparative": 29270, "Ġmanipulating": 29349, "Ġsupplemental": 34885, "Ġtheological": 30576, "Ġ._": 47540, "ovan": 22590, "Ġmeat": 6174, "Ġtattoo": 18785, "ĠTM": 21232, "Ġenh": 5881, "psey": 39070, "ĠYug": 25554, "steen": 42580, "phi": 34846, "1988": 26709, "ĠBh": 16581, "Ġcurator": 46132, "vers": 690, "ĠSiren": 43904, "ulton": 37944, "hin": 20079, "qa": 20402, "communication": 32560, "Ġlords": 33200, "ĠAdmiral": 24646, "ociation": 41003, "business": 22680, "ĠAllows": 40402, "search": 12947, "Ġblood": 2910, "rou": 472, "Ġadmired": 29382, "ĠDent": 39078, "ĠRoberto": 32076, "ĠProtective": 45004, "Increases": 28544, "New": 3791, "ĠArchitecture": 29778, "ĠWhy": 4162, "ĠVM": 16990, "Ġpermanent": 7748, "Ġfer": 11354, "ĠBlazers": 34766, "Ġeffort": 3626, "ĠAnxiety": 48276, "TL": 14990, "Ġscient": 3062, "Ġmillennial": 46451, "Ġcer": 26074, "Label": 33986, "æĥ": 46349, "KING": 37286, "Ã¶r": 30570, "Ġechoing": 39915, "ĠCB": 10078, "iguous": 29709, "ĠAunt": 38074, "Ġcanceled": 19994, "ĠSpin": 28002, "Ġdaily": 4445, "ĠNas": 22767, "Ġinfectious": 25246, "ĠComputing": 38589, "Ġplague": 23684, "ĠEthiop": 23230, "ĠRating": 12028, "Ġ1600": 26143, "inous": 29823, "ãĤ¦": 16165, "Ġmakeshift": 34064, "Ġfundraiser": 27639, "Ġseven": 3598, "Ġopinion": 4459, "imes": 999, "ĠGOODMAN": 32021, "Ġcrab": 32202, "ĠConfederation": 47186, "matically": 49454, "Western": 24227, "ĠSecure": 26707, "ĠAngular": 28147, "ĠCameroon": 44568, "Ġsophomore": 24505, "Ġcush": 24736, "Ġspy": 13997, "ules": 5028, "Ġnegativity": 45074, "esp": 9774, "ĠDynamics": 33806, "ĠSea": 6896, "Ġbreakfast": 12607, "ĠDracula": 41142, "Ġbigot": 25015, "Ġbeck": 47673, "»": 119, "Ġintegral": 19287, "Shape": 33383, "Beast": 41490, "Fal": 41129, "etsy": 34877, "Ġcombinations": 17790, "ĠOH": 18723, "Ġcapability": 12971, "Ġyet": 1865, "Ġam": 716, "Ġtot": 2006, "Ġadventures": 17545, "Ġmusician": 21623, "Ġrightly": 22956, "ĠLabel": 36052, "USA": 14053, "Ġbrokerage": 48716, "ĠDW": 29652, "Ġhardships": 44618, "Ġranking": 12759, "artment": 1823, "ĠInstall": 15545, "ĠCorinth": 31268, "ausible": 17178, "Ġpupil": 34047, "Ġinevitable": 13203, "estyles": 42530, "Ġbishops": 27538, "ĠMubarak": 46544, "ĠSimilar": 11014, "Ġconsec": 42938, "VERT": 15858, "ĠSections": 37703, "between": 23395, "ĠMexican": 10816, "ĠLike": 4525, "ernels": 44930, "Ġflows": 15623, "ĠSOC": 31430, "study": 44517, "Ġpharmaceutical": 18423, "Ġjewel": 16927, "Ġdemonstrators": 25016, "Ġmocking": 31202, "Ġkill": 1494, "ĠRarity": 21948, "Ġwine": 8237, "Ġrim": 20254, "Ġaboriginal": 48328, "ĠQin": 31482, "Ġcount": 954, "really": 27485, "Ġanomal": 26921, "ĠTHEM": 44788, "Ġspell": 4822, "Ý": 153, "Ġminimized": 49491, "Ġguarantees": 19026, "Ġparticipation": 10270, "Ġspokesperson": 11821, "ĠApex": 49440, "TABLE": 38148, "ĠELE": 40342, "ĠMulcair": 47402, "ĠVotes": 39584, "ĠFlip": 29583, "Ġdull": 19222, "ev": 1990, "Mark": 9704, "UGC": 31179, "Kid": 48374, "Ġignoring": 15482, "ĠHann": 14353, "ĠMutant": 35319, "ISTER": 41517, "Ġpers": 2774, "Ġpaired": 20312, "ĠSandra": 32464, "Ġdab": 45553, "inder": 5540, "Ġinterstate": 33078, "Ġfinalists": 43736, "border": 20192, "Ġinsulated": 47869, "Ġdraconian": 33483, "Ġuploading": 33794, "Ġenrol": 34311, "Ġdesire": 6227, "XXXX": 24376, "istered": 23187, "ĠCoconut": 46943, "NECT": 48842, "Ġslider": 28982, "olini": 43232, "ĠMG": 34809, "ĠNewspaper": 49598, "Ġballet": 47735, "ĠEastern": 8345, "ĠMOD": 19164, "Ġlawyer": 6853, "Ġcrit": 1955, "Ġrebell": 17203, "thinkable": 37510, "ĠEat": 27574, "Ġqui": 45567, "ĠMood": 25723, "Ġbipartisan": 20953, "ĠNau": 50071, "Ġthats": 29294, "ileged": 48446, "expected": 40319, "ĠMoh": 9719, "Ġrang": 28077, "idated": 41475, "Ġsure": 1654, "W": 54, "1965": 45271, "Ġinherited": 19552, "Ġdormant": 41038, "Ġfirearms": 12594, "Muslims": 36452, "ĠWorth": 22301, "Ġsmoothly": 21461, "ivo": 23593, "asure": 5015, "Ġcommercially": 26879, "Ġfascist": 28342, "Ġconformity": 39974, "Ġirrig": 29344, "Ġempath": 48004, "ĠLAST": 41894, "Ġstomach": 11384, "Ġoccupant": 47742, "ĠFarms": 39045, "Ġfilename": 29472, "Pri": 34487, "eds": 5379, "ĠSuz": 22691, "ris": 2442, "Ġwell": 880, "Ġbake": 28450, "Ġglared": 50030, "ĠSoul": 8653, "ĠBound": 30149, "ĠHallow": 15400, "Ġdecipher": 42790, "Ġmos": 10867, "sch": 20601, "Ġwould": 561, "Ġgrit": 34954, "ĠAAP": 31518, "Ġherds": 50040, "Ġsuperintendent": 32958, "ĠiP": 9736, "igl": 38686, "Ġdime": 37062, "Ġdystop": 39227, "INS": 20913, "Ġpersisted": 33264, "Ġcomposition": 11742, "ocr": 1696, "Ġidi": 46205, "Ġeras": 49089, "ĠRan": 23075, "ĠBrazil": 7595, "ĠAUTHOR": 44746, "Ġtink": 44569, "ĠGrail": 41036, "Ġcounseling": 21951, "Usage": 28350, "with": 4480, "bet": 11181, "Cor": 10606, "umble": 10344, "Ġcriticism": 7734, "Ġorganise": 42386, "Ġmurderers": 38313, "Ġbicycle": 17026, "ĠOrche": 30369, "rule": 25135, "Ġcontributed": 8639, "tical": 22869, "ĠPERSON": 46740, "Ġhaul": 25647, "ĠLinux": 7020, "ĠBounce": 41474, "ĠInsp": 25300, "Ġcountry": 1499, "Ġneeds": 2476, "Ġentrusted": 37984, "Ġlong": 890, "Ġdoct": 10412, "Ġincorpor": 8552, "Ġunclear": 10061, "ĠHUN": 41041, "set": 2617, "Ġpoison": 8764, "Ġrecalls": 16865, "focused": 18143, "ĠGenerator": 35986, "706": 35402, "Ġsynonymous": 33271, "Ġwindshield": 38866, "Ġline": 1627, "695": 37381, "nos": 39369, "Ġbruising": 45468, "Ġflavorful": 47420, "Ġpilgrimage": 36068, "itta": 48519, "fff": 20972, "et": 316, "Reward": 48123, "Ġfeatures": 3033, "Ġpredictor": 41568, "ĠDate": 7536, "ĠSpo": 49331, "332": 32148, "ĠPersonal": 15644, "ibraries": 11127, "ĠOntario": 10553, "Jonathan": 30365, "ĠBerserker": 43971, "Ġdeserve": 10925, "for": 1640, "ĠKus": 49320, "Ġridic": 8817, "ĠBog": 21555, "ANCE": 19240, "how": 4919, "ĠMaurice": 32839, "Ġderail": 33749, "ĠLann": 39004, "ĠUkrainian": 13053, "Jimmy": 40335, "Ġcreepy": 23387, "Ġstacking": 41228, "ĠResidential": 46388, "Ä": 128, "Ġsor": 25655, "rest": 2118, "ĠBar": 2409, "789": 40401, "ologne": 30520, "ĠEmin": 37912, "Ġensure": 4155, "cknow": 5319, "ĠGrave": 36424, "Ġpills": 19521, "Ġmonkeys": 26697, "Bul": 33481, "ĠCombo": 34257, "aine": 5718, "Ġattachment": 18231, "Ġâī¥": 26870, "same": 31642, "Ġbranding": 24150, "determination": 40869, "ĠOrganization": 12275, "ourning": 31626, "law": 6270, "66": 2791, "utenberg": 19028, "Ġsnapshots": 47787, "ĠPerform": 35006, "Ġcarb": 13265, "Ġamused": 36979, "nick": 17172, "ctx": 49464, "estival": 6743, "through": 9579, "chel": 29232, "NER": 21479, "orial": 5132, "ĠStatement": 21983, "ĠHollande": 33590, "ĠPrototype": 48954, "ECH": 25994, "Ġfortnight": 46327, "ĠTOTAL": 36247, "ENTION": 45589, "ĠRosenthal": 49859, "vern": 933, "ĠInterest": 12033, "Ġswore": 37964, "141": 23756, "///": 20379, "ĠGrenade": 47951, "Ġpicked": 6497, "Advertisements": 14592, "ĠAuth": 26828, "monary": 36639, "Ġcells": 4778, "ĠKham": 45159, "ĠFace": 15399, "030": 39101, "Ġreconsider": 26540, "Ġstudying": 11065, "Ġimmunity": 16989, "Ġpresidency": 12112, "Ġsnatched": 43276, "ĠFalls": 17930, "ĠEpidem": 38437, "Ġretali": 28160, "Ġmyriad": 24862, "Ġ76": 8684, "Ġ5000": 23336, "ĠMAY": 26720, "Ġsee": 766, "ieves": 17974, "Ġemploying": 26490, "Ġsnap": 11495, "ascus": 20275, "amin": 5669, "Ġbells": 30987, "Ġadmits": 15534, "cription": 6820, "Load": 8912, "ozyg": 49834, "ĠIssa": 47410, "Ġearnings": 12042, "Ġdisciplinary": 24737, "ĠTit": 7659, "Bl": 3629, "Ġappellant": 44975, "Ġinnovative": 13097, "Ġregardless": 7692, "Ġoverload": 31754, "plets": 46916, "ĠDR": 10560, "ĠCLS": 39241, "ĠMcD": 23394, "equality": 48203, "ston": 3743, "recated": 31023, "Ġmineral": 18352, "Ġmanner": 5642, "ĠExpress": 10604, "Ġimplementing": 15427, "cens": 42595, "iage": 42360, "âĢĭâĢĭ": 39009, "ĠFiorina": 49028, "gap": 43554, "ĠQian": 44696, "empty": 28920, "ĠAcc": 6366, "ĠStrategies": 40996, "ĠPRO": 21965, "install": 17350, "Ġclicks": 25785, "Ġbiased": 21925, "ĠStones": 26596, "Ġalienated": 41258, "atmeal": 45280, "AF": 8579, "Ġkilled": 2923, "Ġheritage": 15012, "uit": 5013, "ĠCoinbase": 45802, "Cube": 29071, "Sync": 28985, "Scar": 44433, "Ġoptics": 36237, "Assad": 23622, "ĠSpr": 5522, "owers": 3618, "ĠVolume": 14701, "ĠCer": 17419, "Ġperman": 6092, "atin": 10680, "Ġbailout": 29928, "Ġrealistically": 39659, "iddle": 2509, "ynchron": 24871, "ĠRothschild": 38198, "Ġsuspected": 9885, "Ġ433": 47407, "axter": 40864, "Ġhole": 7604, "laughs": 28124, "ĠPier": 13762, "gent": 6783, "ĠMeat": 19145, "Ġrevised": 15556, "Ġelectronically": 35427, "ript": 1968, "Ġafterward": 20875, "ĠUtt": 36057, "Ġmercury": 27394, "Ġblow": 6611, "Ġmorals": 35472, "ĠIslands": 12010, "ILS": 45484, "ĠWizards": 21092, "ĠWillow": 33021, "ĠGleaming": 49339, "inters": 20193, "Ġbrim": 49943, "Ġego": 19225, "Ġalle": 28654, "ĠParkway": 38613, "ĠGerman": 2679, "ĠÂ·": 14128, "ANK": 15154, "ĠVega": 30310, "amine": 9862, "aret": 8984, "ĠSantos": 28458, "Contact": 17829, "Ġemit": 27588, "Ġbullied": 33632, "Ġvolcan": 17516, "Ġspa": 41900, "ĠREL": 29749, "ĠTN": 29025, "ĠIdea": 37560, "ĠMeg": 8336, "Ġtweaks": 26957, "Ġ425": 36959, "Ġagg": 4194, "Ġoverhaul": 18708, "ĠDozens": 39672, "Ġplotting": 29353, "Pay": 19197, "Ġamusing": 28297, "Ġperplex": 35682, "ĠCurtis": 25157, "oling": 40949, "Ġdebating": 31174, "Ġexternally": 45107, "Ġdebate": 4384, "ancer": 8250, "Ġsupposed": 4385, "Ġsands": 30959, "agascar": 44309, "Ġgrounding": 48459, "ĠDum": 30933, "ĠDear": 23420, "Ġracist": 9811, "ĠTruth": 14056, "mint": 34289, "storms": 38563, "ground": 2833, "wallet": 44623, "ĠGallup": 29183, "ĠWAS": 21725, "Method": 17410, "558": 40486, "Ġwatt": 40114, "ĠSafety": 11233, "ĠDos": 43976, "Ġheavier": 20140, "Las": 46898, "(-": 32590, "117": 17657, "living": 19950, "obiles": 36329, "Ġpurple": 14032, "BIP": 47772, "iscopal": 42522, "Ġlocale": 36693, "Ġclosest": 11706, "Arsenal": 46230, "ĠDocuments": 33267, "plant": 15060, "array": 18747, "Ġprincipally": 41889, "meric": 946, "Ġdetects": 39382, "Ġ%%": 43313, "body": 2618, "Ġmultiple": 3294, "Ġquote": 9577, "ya": 3972, "ARGET": 46095, "ĠShir": 21972, "ote": 1258, "ĠFormula": 19639, "Ġthirteen": 28306, "icians": 5106, "ordan": 7350, "Ġillnesses": 24024, "Ġtripled": 43761, "Ġdisclosure": 13019, "ĠStatue": 43330, "Ġmarginally": 44108, "Ġparts": 3354, "Ġangry": 7954, "Ġpeanut": 26636, "ĠValley": 6916, "ĠWas": 8920, "anz": 35410, "Hist": 13749, "sty": 34365, "onica": 32752, "ĠMaharashtra": 41624, "ĠHole": 24478, "respond": 5546, "ECK": 25171, "ĠUntil": 14303, "ĠKyle": 14316, "ĠSupplementary": 43008, "ĠHDL": 48867, "ĠFritz": 45954, "anski": 44978, "anwhile": 6710, "ĠRobinson": 12652, "Ġdifficulties": 13156, "Ġineligible": 39538, "Ġfungus": 39526, "ĠDustin": 37616, "Ġomega": 37615, "ĠBrooklyn": 12232, "dh": 34985, "Ġimplicit": 16992, "Ġbreakdown": 14608, "Ġrud": 28906, "PO": 16402, "ĠFood": 7318, "Ġnationalists": 32442, "onson": 36742, "OIL": 49713, "Ġobjectively": 35721, "Ġwithout": 1231, "leases": 29329, "ĠJunk": 34980, "Ġtheoret": 12376, "ĠMissions": 46006, "ĠHaving": 11136, "\",\"": 2430, "Ġconverter": 38394, "ãĤĴ": 31758, "ately": 1286, "Ġunrealistic": 31363, "Ġcurv": 46171, "Crit": 18559, "Ġresurgence": 39330, "ĠLys": 46749, "Ġcarpet": 20710, "ĠSerpent": 30177, "ĠYanukovych": 43202, "Ġcollaborate": 30081, "Ġgn": 19967, "brother": 37343, "Ġtarget": 2496, "istration": 33397, "Ġminded": 35661, "Sea": 37567, "Ġprimaries": 25430, "idate": 20540, "ĠMemories": 32923, "Ġshielding": 43539, "ĠOlympic": 11514, "Ġseeks": 12932, "ĠSecretary": 4986, "Ġwilderness": 22775, "friend": 6726, "Ġdebated": 24594, "96": 4846, "ĠDirection": 41837, "ĠOvers": 29425, "Ġasserting": 33183, "Ġborrower": 39740, "Ġenchant": 23260, "ĠHearts": 20592, "=]": 48874, "ĠLoad": 8778, "Ġscale": 5046, "Ġfres": 34093, "agent": 25781, "Ġsubtitles": 44344, "ĠFre": 4848, "Ġcompare": 8996, "Sound": 21369, "Ġvoices": 10839, "rh": 17179, "sell": 7255, "ĠUSPS": 44640, "letter": 9291, "ĠGarr": 46619, "Ġunwanted": 19125, "Ġidentical": 10411, "ĠGrid": 24846, "Ġinvestigations": 10986, "Details": 24259, "Ġcorpus": 35789, "00007": 44808, "Ġhepat": 32070, "ĠRoad": 5567, "Ġclenched": 47344, "Ġmosqu": 22263, "Ġaccents": 39271, "Ġpanc": 22154, "Val": 7762, "September": 17543, "]),": 46570, "Ġassigning": 38875, "Ġcorporate": 6355, "ĠRemember": 11436, "ĠCheese": 27601, "Ġevangelicals": 44881, "Ġgrammar": 23491, "pelling": 35025, "ĠAsc": 29469, "ĠShinzo": 43531, "itaire": 26627, "Ġappet": 16422, "401": 21844, "ushed": 7474, "rpm": 48235, "Ġenthusiastically": 42045, "Ġliquor": 20030, "LV": 30976, "ĠOne": 1881, "Ġimpacts": 12751, "ploma": 35728, "speech": 45862, "Ġboot": 6297, "ĠSign": 5865, "Ġkey": 1994, "ĠPlot": 28114, "eed": 2308, "isin": 45763, "Ġflaws": 17978, "ĠRussell": 11563, "ean": 11025, "Ġprovides": 3769, "ĠAgenda": 37029, "qi": 40603, "Ġphr": 7607, "Would": 17353, "Ġoutput": 5072, "Ġagric": 8986, "Ġintolerable": 49469, "Ġintent": 6824, "200000": 33470, "ĠCand": 15518, "Cross": 21544, "Ġjava": 20129, "Ġhalves": 37192, "ĠSUM": 35683, "ossession": 49809, "ĠImam": 38386, "Ġunintentional": 48398, "intelligence": 32683, "Ġjoined": 5399, "Ġentering": 8218, "ĠBurg": 21435, "Ġblowing": 19280, "ĠMits": 22424, "Ġabruptly": 25891, "ĠLI": 24653, "ĠFootball": 9957, "Ġoverwhelmed": 20974, "ÙĨ": 23338, "zon": 26361, "ĠMeasures": 45040, "Ġsushi": 36324, "Ġanonymous": 11614, "ĠAnt": 3738, "Ġgroundwork": 40641, "iband": 35967, "EU": 19684, "Ġwaited": 13488, "skill": 42401, "ĠTwelve": 30775, "Ġventured": 44716, "Ġjung": 34799, "ĠFed": 10169, "ctr": 24087, "Ġprobable": 17939, "Ġwiret": 33509, "IDA": 41957, "ĠAttack": 8307, "Ġformation": 9978, "ptoms": 35533, "Under": 9203, "Ġcomparatively": 31188, "Ġcasc": 49164, "ĠSc": 1446, "ĠMain": 8774, "Ġeditor": 5464, "Â©": 16224, "IFE": 29150, "uble": 26664, "Ġankle": 19847, "figured": 46296, "photos": 24729, "readable": 46155, "Ġsolidly": 49549, "Ġcry": 3960, "Ġmode": 4235, "Ġcoron": 26920, "Ġeve": 28001, "ĠBush": 5511, "ened": 2945, "Ġ29": 2808, "ĠDise": 14865, "Ġshorts": 22078, "naissance": 47090, "Ġupwards": 21032, "Ġreasons": 3840, "Ġgathered": 9272, "\";": 8172, "ĠâĨ": 17804, "ĠKenya": 21506, "Ġshuff": 32299, "In": 818, "Ġconcentrate": 20062, "Ġbehaviors": 14301, "ĠAMER": 32617, "hy": 12114, "Ġcompeting": 11780, "Ġ261": 39166, "ascal": 27747, "219": 28896, "Ġcountryside": 25708, "ĠLearns": 30667, "cloth": 44905, "ĠThreat": 25238, "ĠTele": 14318, "adem": 36920, "ĠNer": 21783, "Ġactually": 1682, "íķ": 47991, "ident": 738, "ĠSide": 12075, "govern": 47866, "Cass": 43529, "orously": 24882, "cerned": 49990, "soType": 39803, "ntil": 10125, "Ġdental": 22727, "Ġweapons": 3777, "Ġfort": 6285, "ĠMans": 18580, "Ġdetain": 17017, "Ġsubtitle": 37960, "he": 258, "brace": 46565, "XL": 32457, "inational": 26201, "cia": 33743, "Whoever": 47896, "Bah": 47514, "ĠWITHOUT": 42881, "Clar": 48035, "arming": 18052, "Ġslamming": 39603, "ĠTag": 17467, "missions": 8481, "ĠRange": 13667, "Ġpayday": 45691, "Ġspac": 34752, "president": 22540, "ĠCarnival": 40886, "Ġmany": 867, "Ġmigr": 15720, "NA": 4535, "olis": 8506, "UX": 31235, "ĠRin": 25773, "Ġfemin": 7290, "Ġmounts": 30790, "ĠNarc": 31987, "Ġundercut": 43726, "olithic": 30764, "Ġpoker": 27101, "ĠJa": 13790, "ĠPrec": 28737, "Palest": 32570, "Ġdors": 37650, "ĠWak": 46033, "ĠShirt": 45180, "Ġunse": 38478, "ODE": 16820, "Ġstarve": 47141, "Ġcultural": 6467, "Ġbehav": 2955, "Ġforesee": 25511, "ONDON": 47383, "ĠLawson": 35892, "Ġtoget": 1977, "ĠEvent": 8558, "Ġinterchange": 26478, "KB": 22764, "ĠBris": 25537, "texture": 41293, "chin": 24658, "Pull": 42940, "ĠSAL": 42475, "Ġnucle": 17751, "ĠRoth": 16131, "gs": 14542, "Ġaccepting": 12598, "Ġforeskin": 49877, "Ġshouts": 34757, "Ġcomplaint": 8224, "Ġmajorities": 43983, "Ġtemplates": 24019, "ative": 876, "Ġthw": 41964, "jam": 39159, "Calif": 19619, "ĠIw": 44316, "Ġshirt": 10147, "olly": 5098, "Ġright": 826, "anne": 21952, "Ġeffortlessly": 42241, "ĠMembers": 12688, "ĠPACs": 43838, "Ġverbally": 38119, "060": 41322, "footed": 43127, "Ġsomet": 1054, "ĠCorsair": 47345, "ĠChest": 25544, "fact": 22584, "Ġbuckets": 38674, "capital": 27544, "ĠObama": 2486, "Ġwhites": 13216, "ĠCLIENT": 45148, "safety": 44708, "renheit": 34032, "ĠBeam": 25855, "Ġvoiced": 21346, "inion": 23971, "Ġdeviation": 28833, "CRIP": 36584, "Ġgobl": 29646, "unless": 25252, "ĠDetect": 35874, "Ġstrongh": 26733, "Ġnations": 7027, "ĠMovement": 15477, "Ġposs": 1184, "oc": 420, "Ġnext": 1306, "Ġfundamentally": 17640, "stats": 34242, "ĠDmitry": 45181, "Ġsun": 4252, "ĠFalling": 42914, "Ġreplicated": 35108, "ĠContinent": 45778, "Don": 3987, "ĠMyst": 32347, "Ġsmugg": 19176, "Ġ345": 39937, "Ġcoercive": 47236, ">,": 22330, "uton": 32894, "acter": 7321, ">]": 37981, "Ġbec": 639, "alled": 4262, "ĠPlato": 32976, "ĠHOW": 29630, "ĠHik": 39790, "ĠDrunk": 42739, "pread": 9681, "ĠTim": 5045, "Ġproposes": 26017, "Ġrunway": 23443, "example": 20688, "ĠOffice": 4452, "Ġindicates": 9217, "ĠRedux": 30609, "ĠShowdown": 46645, "Diff": 28813, "glomer": 37757, "Ġinspiration": 12141, "Ġspokesman": 6523, "ĠJaune": 29415, "ĠCoast": 8545, "Ġshowdown": 33338, "ĠCroatia": 28975, "iled": 3902, "Ġcontents": 10154, "Ġribbon": 29092, "Ġshallow": 19337, "efined": 18156, ".ãĢį": 43735, "Ġshoulder": 8163, "query": 22766, "ãĥĥ": 14777, "Ġdivine": 11871, "Ġwreck": 15228, "ĠJosÃ©": 36997, "Ġorganisms": 20296, "works": 5225, "Rather": 27202, "ĠVampire": 21463, "ĠSup": 5200, "elfth": 44659, "abb": 6485, "Ġcaptain": 10654, "una": 9613, "Br": 9414, "Ġretina": 45804, "CNN": 18474, "Î": 138, "ĠJury": 48705, "lehem": 44797, "388": 30460, "PA": 4537, "Ġprovider": 10131, "Ġlightly": 15376, "Ġgenerate": 7716, "bral": 24427, "ULE": 24212, "Ġhealth": 1535, "uation": 2288, "Ġoccasions": 12432, "ĠWhoever": 37807, "ĠColumbus": 14939, "WI": 36326, "Ġthreaten": 16180, "æ": 162, "ĠSpringfield": 27874, "estones": 30637, "Ġdiscredit": 34019, "Ġshifts": 15381, "ĠGareth": 39897, "fast": 7217, "Ġost": 23619, "Ġenerg": 19647, "ĠFior": 40040, "Ġcollectively": 21329, "ĠBolivia": 38496, "ĠJimmy": 12963, "paralle": 37083, "Ġhospitals": 11301, "chester": 35983, "ĠBundle": 25282, "Ġecology": 36517, "Ġip": 20966, "Ġbattleground": 35057, "Ġquests": 21359, "PP": 10246, "friendly": 13120, "rub": 25089, "Ġoutputs": 23862, "Ġfingert": 35676, "Ġmad": 8805, "Ġtransportation": 9358, "Ġsubstituted": 31601, "bp": 46583, "ĠTelescope": 36789, "usalem": 10555, "Ã±": 12654, "Ġbroader": 11622, "OUND": 15919, "ĠAdventures": 15640, "essen": 44483, "ĠViper": 34517, "Iran": 23798, "Ġrolled": 11686, "ĠStrikes": 37836, "Ġlosses": 9089, "oice": 2942, "ying": 1112, "igenous": 12357, "uj": 23577, "Ġdrilling": 19747, "ĠBoo": 21458, "ater": 729, "Ġmuzzle": 31746, "Ġthinkers": 30504, "Ġalleges": 24763, "ĠMultiple": 20401, "Vaults": 33937, "ĠKris": 27748, "Strong": 33004, "Ġwar": 1175, "Ġdarker": 18646, "æ©": 43897, "ida": 3755, "Ġspecialty": 22847, "Ġappreciate": 9144, "Ġinventor": 33475, "Ġmountains": 12269, "ĠVinyl": 45949, "ĠMoon": 6869, "ĠFnatic": 44704, "Ġrises": 16736, "Ġsessions": 10991, "Ġpresided": 45022, "wealth": 14298, "eni": 43850, "ĠBarrel": 29920, "arians": 13517, "Ġsing": 1702, "Ġ#####": 46424, "ĠExposure": 39090, "ĠMeyer": 23975, "458": 29334, "infeld": 47187, "Ġsuspic": 12486, "/-": 16327, "Hub": 16066, "Ġsloppy": 35862, "Official": 28529, "Ġvers": 1646, "ĠIrving": 26101, "Ġbooked": 21765, "éĥ": 32849, "Ġprot": 1237, "igure": 7047, "Feel": 35114, "Ġnos": 43630, "Ġwrestler": 34845, "Ġlim": 1761, "itude": 3984, "ĠDumbledore": 27442, "threatening": 26159, "Ġhence": 12891, "366": 32459, "ankind": 28066, "ĠCI": 14514, "spir": 45564, "CVE": 31436, "Ġproletariat": 30444, "Ġsince": 1201, "ĠConstantin": 41766, "Pat": 12130, "Ġrelinqu": 36610, "Ġinfamous": 16526, "Ġdetermining": 13213, "ĠDorothy": 40349, "Ġcannons": 37577, "ĠGalaxy": 9252, "Ġflavour": 29254, "rieved": 28130, "apan": 2674, "Ġsoluble": 49467, "Ġangst": 48973, "Ġwashed": 18989, "Ġhabitats": 35308, "Ġmurdering": 33217, "olding": 33266, "united": 41187, "Ġchannel": 6518, "Ġamounts": 6867, "phant": 33959, "ĠMidlands": 47989, "ĠLC": 22228, "ĠDoomsday": 45234, "Ġjungle": 20712, "Ġattackers": 16391, "dogs": 22242, "ANA": 31574, "umsy": 37133, "ĠDestiny": 17886, ".--": 9816, "Ġaccessing": 22534, "itud": 26331, "antly": 3875, "Ġimm": 2296, "Ġparticipants": 6809, "Ġfund": 1814, "ued": 1739, "VG": 43490, "ructose": 32275, "ĠJournalists": 45644, ",": 11, "ĠHale": 35056, "Ġposterior": 34319, "Ġbed": 3996, "Ġfinances": 20903, "'t": 470, "ĠTeam": 4816, "ĠEducation": 7868, "peed": 39492, "Ġgrenade": 26168, "Ġcough": 22094, "poons": 27575, "ĠCharge": 20260, "ĠSigned": 36215, "Ġ>": 1875, "ĠWilkinson": 46463, "Ġadvise": 18595, "Ġ207": 27791, "Ġdesperate": 12111, "Ġlubric": 33211, "ĠmacOS": 40017, "aiman": 47840, "alon": 40755, "ĠTOR": 40691, "Cent": 19085, "BRE": 40438, "Ġstarvation": 32143, "uzz": 4715, "æŃ": 29826, "illions": 40083, "ĠDawn": 12258, "203": 22416, "ĠTS": 26136, "Ġblasting": 36998, "Ġpatri": 12650, "ĠSneak": 49475, "Ġgigs": 42299, "Ġ40": 2319, "angered": 19041, "ĠBalloon": 47821, "×Ĳ": 42973, "agus": 31111, "Ġpairs": 14729, "Ġbrowsing": 23182, "Ë": 135, "Ġdoubts": 17188, "Ġaccomplishments": 26516, "Ġdust": 8977, "++++++++++++++++": 44627, "Ġtrig": 5192, "ĠQu": 2264, "ishers": 39116, "Gal": 26552, "Ġmultif": 43543, "uddled": 32745, "area": 20337, "Ġunderestimated": 36190, "ido": 17305, "Ġletters": 7475, "Ġcore": 4755, "udeau": 16229, "Ġrec": 664, "atively": 9404, "take": 20657, "Ġathleticism": 35159, "ĠBarn": 11842, "ribution": 3890, "Ġcorrect": 3376, "Ġtweaked": 38304, "Ġchilling": 28010, "ĠPlaystation": 44902, "Ġseamlessly": 33681, "Ġmodules": 13103, "kered": 28970, "Ġothers": 1854, "viron": 2268, "ĠFl": 1610, "Ġovercome": 10980, "Ġglobal": 3298, "ĠNeh": 44470, "Ġexploit": 14561, "Ġspitting": 46266, "Ġcarved": 23470, "ĠWi": 11759, "Ġbackup": 11559, "ĠLO": 17579, "be": 1350, "caliber": 43288, "French": 24111, "Micro": 13031, "899": 44093, "annot": 34574, "made": 9727, "Ġkitchen": 9592, "fits": 21013, "Collect": 31337, "ĠCic": 37212, "idan": 27610, "ĠMalfoy": 39157, "Ġintegration": 11812, "ĠPercy": 38506, "Ġtem": 2169, "ĠCanal": 31314, "Mad": 18454, "ĠBrittany": 48773, "desktop": 41375, "Ġplun": 19324, "ĠToken": 29130, "Ġvibration": 30999, "Ġdevoid": 34065, "ĠMb": 40001, "Ġlemon": 18873, "Ġ44": 5846, "Tr": 2898, "ĠCAD": 37292, "agu": 11433, "Ġidentifies": 21079, "ĠJian": 40922, "Ġreacts": 30174, "Ġmonarchy": 35184, "Ġlocality": 48036, "Ġessential": 6393, "Ġslaughter": 17968, "Ġears": 11368, "ĠWy": 12958, "Ġsurgeries": 33624, "ĠMicro": 4527, "ç¥ŀ": 15351, "Ġenormous": 9812, "²¾": 39333, "ĠWitcher": 36018, "Ġpredec": 14060, "ðĿ": 47728, "football": 15914, "Ġcout": 42304, "Ġ238": 32544, "ĠDeadline": 35954, "Ġwinter": 7374, "ĠPUR": 33079, "ĠVar": 12372, "Supported": 48181, "ĠCay": 28335, "Ġpets": 17252, "ann": 1236, "ocard": 44412, "Ġsailor": 43272, "Ġhonored": 21014, "ints": 29503, "opathic": 44650, "Ġbullets": 16043, "159": 19707, "Ġviruses": 20547, "Ġpasser": 30286, "ĠMess": 10626, "Ġevolving": 21568, "Ġfluids": 28704, "ĠJavaScript": 11933, "Ġuranium": 22010, "Ġmartial": 15618, "Ġcandidacy": 24514, "Ġarrival": 10325, "YE": 48743, "ĠEck": 45232, "Sen": 10445, "avoid": 27080, "ĠFat": 12301, "Ġdealt": 11829, "ĠPlate": 23648, "ĠPediatrics": 46776, "Ġardent": 43033, "Ġfray": 40606, "Ġpunt": 35363, "Ġnano": 38706, "Ġautonomous": 18284, "ĠMP": 4904, "San": 15017, "aturdays": 39724, "ðŁĺ": 47249, "ĠUni": 43376, "Well": 5779, "Ġillustrious": 47887, "chwitz": 36297, "ĠModels": 32329, "lower": 21037, "folder": 43551, "Ġpromises": 10497, "Ġhills": 18639, "store": 8095, "206": 22136, "ive": 425, "acs": 16436, "Ġmulti": 5021, "Fun": 24629, "Ġhighest": 4511, "ĠAGA": 36218, "ithub": 10060, "Ġawkward": 13006, "Ġswallowing": 45590, "036": 48597, "Server": 10697, "Ġmutual": 13584, "Ġrigorous": 22888, "ĠAnne": 15397, "ĠDispatch": 35934, "Ġdimensions": 15225, "ĠASC": 25400, "Ġhumble": 19695, "Ġfreshmen": 45208, "abo": 34748, "ĠLB": 22199, "Note": 6425, "Ġ221": 31566, "Ġbeg": 4123, "Ġatomic": 17226, "âĻ¥": 39908, "Ġperpet": 8939, "ĠPage": 7873, "oi": 23013, "ĠNights": 27760, "ĠActivity": 24641, "ĠAx": 12176, "ĠCove": 39534, "Ġbegged": 32946, "ãģį": 33778, "Ġvaping": 42106, "Ġcursed": 25155, "Ġrelatives": 12772, "Ġquantum": 14821, "astical": 32044, "ĠLords": 18651, "rys": 19753, "Ġoccupy": 22265, "Ġshop": 6128, "Ġtumors": 31155, "pay": 15577, "ul": 377, "Ġpollen": 40362, "Ġdeck": 6203, "Ġresearcher": 13453, "ĠEmail": 9570, "hate": 37035, "ĠClothing": 48921, "Ġwent": 1816, "Ġsyll": 27226, "pet": 6449, "dose": 34436, "ĠNorris": 33444, "ă": 191, "Scientists": 29193, "Eat": 47659, "ĠFinger": 39454, "Ġenforcing": 26587, "Ġoccasion": 6695, "izzard": 16191, "ĠMov": 44795, "Ġexploded": 18750, "CLAIM": 48778, "Ġ1951": 27937, "700": 9879, "Tyler": 46807, "Ġbright": 6016, "andom": 3749, "Ġencode": 37773, "300": 6200, "uous": 5623, "Ġlush": 37408, "ĠAMERICA": 49463, "cand": 46188, "]": 60, "Ġeducating": 36267, "Ġcorrection": 17137, "Ġaudiences": 15579, "img": 9600, "Ġgrabbed": 13176, "ĠHO": 40115, "ĠTr": 833, "Ġclearly": 4084, "ĠScale": 21589, "roud": 5493, "ĠIndra": 49886, "Region": 47371, "ĠCancel": 27910, "Ġnetwork": 3127, "ĠKlan": 31151, "Ġchance": 2863, "ĠCreed": 24299, "ĠAhmed": 21157, "canon": 49883, "Ġtypes": 3858, "ĠShoals": 40510, "âĻ¦": 41298, "Ġkeeping": 5291, "North": 14157, "Ġmeshes": 48754, "Ġbids": 27837, "normal": 11265, "Ġprud": 25220, "Ġdegraded": 41604, "Ġbiotech": 47693, "ĠACE": 40488, "Ġbeh": 1372, "Ġjoyful": 48977, "Ġjersey": 22383, "ĠLEG": 20978, "ĠGithub": 38994, "Ġappalled": 41586, "âĢĲ": 9333, "ĠDifferences": 41937, "Ġmerchants": 21779, "months": 41537, "ĠIranians": 34608, "Ġyielded": 26403, "Johnny": 44960, "Ġchemotherapy": 34696, "Ġpioneers": 40547, "Â": 126, "ĠQaeda": 17942, "Ġmom": 1995, "toe": 44579, "ĠMonths": 37461, "Ġhydraulic": 34797, "ĠGaul": 43540, "Icon": 19578, "progress": 33723, "ĠMaintenance": 34857, "ĠIndonesian": 28259, "Ġmash": 30407, "Ġ\\\"": 19990, "demon": 26567, "Ġpurchases": 13339, "ĠFlam": 33104, "ĠOmega": 19839, "Ġcursor": 23493, "Ġadmit": 9159, "ĠCoordinator": 36831, "Ġinsin": 43553, "jet": 31173, "Ġtails": 30514, "ĠLars": 31239, "Ġaggressive": 8361, "Ġvitro": 30590, "Ġscene": 3715, "aly": 3400, "Ġ119": 15136, "rak": 17716, "oni": 14651, "NK": 46888, "Ġrefining": 39634, "Ã¼": 9116, "Ġ103": 15349, "ĠMillions": 39830, "Ġextinguished": 42774, "redibly": 45779, "vernight": 47443, "ĠBec": 15780, "Ġembr": 7726, "Ġ402": 42622, "Sky": 22308, "âĢĳ": 20977, "mass": 22208, "eren": 14226, "fed": 19082, "ĠIsrael": 2692, "ĠJoin": 15251, "Ġproposing": 24634, "ĠConservation": 23702, "Ġsuggested": 5220, "iety": 1905, "Ġunregulated": 47289, "/.": 11757, "Ġbigotry": 28849, "Ġqueer": 24506, "iance": 3610, "Ġ999": 36006, "Ġdied": 3724, "ĠEach": 5501, "nas": 24716, "NW": 27605, "Ġpestic": 20213, "ĠExt": 5683, "Ġobjected": 29811, "ĠDefenders": 26983, "ĠMaria": 14200, "GAN": 45028, "Ġrelax": 8960, "Ġvape": 44931, "priv": 13776, "Ġgymn": 38581, "ĠFu": 13333, "Ġpowdered": 41642, "endar": 9239, "Clearly": 30638, "lay": 10724, "Ġharmonic": 49239, "ĠProper": 45989, "Ġdazz": 32282, "ĠNem": 22547, "Ġovershadow": 35562, "ĠCors": 26978, "Ġtranscripts": 29351, "001": 8298, "Ġque": 8358, "Ġcoupled": 18064, "Ġruler": 22740, "Ġinconvenient": 37513, "ĠSlack": 36256, "addy": 13218, "Hu": 38202, "Ġrelayed": 47968, "Ġtub": 12202, "Ġvehicles": 5672, "Ġentirety": 21818, "pots": 40793, "INC": 30158, "85": 5332, "Ġlogger": 49706, "à¦": 48071, "ĠSkill": 16023, "ĠYe": 11609, "Ġvowed": 19982, "Church": 46686, "Ġdeforestation": 48152, "Ġdarling": 40003, "igned": 3916, "Owner": 42419, "Ġhastily": 37205, "Ġrecruit": 10960, "axy": 6969, "ĠNoel": 33905, "Ġaccept": 2453, "ĠLaugh": 47501, "ĠIslamists": 34434, "ĠUsing": 8554, "Ġreforms": 12506, "Ġprosperous": 32757, "System": 11964, "Ġmu": 38779, "ĠRonaldo": 36309, "ĠSheikh": 30843, "asar": 42391, "Ġdr": 1553, "Ġsmoking": 9216, "Ġincendiary": 47716, "Ġmic": 12314, "ĠMant": 36987, "VID": 11008, "ĠPJ": 44941, "ĠQuestion": 18233, "ĠLouisville": 21525, "Law": 16966, "Ġairflow": 45771, "ĠDar": 7491, "mat": 6759, "Ġgold": 3869, "Ġmacros": 34749, "Ġcluster": 13946, "ĠWer": 27648, "Select": 17563, "Ġteaser": 38388, "Ġsay": 910, "woman": 8580, "Ġoven": 14361, "Ġconventions": 21396, "ĠBeacon": 29729, "pel": 30242, "ĠHandle": 33141, "ĠMul": 17996, "Ġdonations": 10976, "gur": 45073, "romy": 50228, "ĠVor": 44143, "Ġcheer": 14042, "ãĤĤ": 43266, "Ġexper": 1121, "Ġqualified": 10617, "ĠANG": 33278, "ĠContinuing": 48516, "Ġiterator": 41313, "rade": 27585, "eur": 23365, "ĠCrack": 46180, "vind": 50172, "Ī": 230, "Ġbarrier": 13054, "Ba": 34458, "Ġident": 1852, "Death": 20148, "YES": 43335, "ĠNorthwest": 20572, "Ġdrops": 10532, "ormal": 6636, "Ġhealing": 11516, "ivas": 38630, "Ġpigeon": 46387, "uber": 18478, "Ġexist": 2152, "Ġresidents": 5085, "Ġcaliphate": 48051, "Ġannihilation": 49972, "Ġhopes": 7176, "Ġjoking": 29711, "ĠCitizens": 18029, "ĠCopper": 27157, "housing": 50028, "iet": 1155, "Ġmonument": 17757, "Ġnarcotics": 36524, "Ġdances": 38207, "Ġmonster": 9234, "ĠAwareness": 36735, "Ġextortion": 38583, "gery": 7076, "Ġaccent": 18702, "Ġstrawberries": 36973, "Ġhypot": 8813, "ĠSending": 32038, "odore": 25102, "igator": 23823, "ĠDeveloper": 23836, "Ġfigure": 3785, "Ġspanning": 32557, "Donald": 7371, "Ġnearly": 3016, "Ġ436": 50038, "velength": 26623, "ĠJFK": 35216, "Ġuproar": 40741, "Ġcybersecurity": 31335, "ĠRandall": 29799, "ĠSymphony": 33195, "ĠIntegrated": 35432, "ãĥ¼ãĥĨãĤ£": 44686, "Ġskysc": 37885, "ĠMobile": 12173, "ĠUbisoft": 34559, "ĠTeg": 49895, "fitting": 32232, "ĠMinecraft": 24609, "Ġconcurrently": 47480, "pleted": 16838, "window": 17497, "Ġframeworks": 29251, "Ġoccupied": 12030, "nit": 48825, "CPU": 36037, "Ġbites": 26081, "uminati": 37200, "Ġpinch": 25394, "ender": 2194, "Ġmoreover": 33695, "Ġactivation": 14916, "Ġelsewhere": 8057, "zie": 49746, "Ġtennis": 20790, "medical": 41693, "Dest": 24159, "ographers": 34063, "ĠRosenstein": 41916, "ĠLiberation": 29235, "ĠAmp": 50161, "Ġbenefit": 4414, "Ġliber": 3655, "Ġcomputer": 3644, "trip": 39813, "Ġeconomical": 40590, "ĠHalls": 42544, "Ġeverywhere": 8347, "Ġtossing": 37432, "Ġ):": 15179, "Ġla": 8591, "olver": 14375, "Oh": 5812, "Ġrecovers": 46773, "Ġcpu": 42804, "Ġmelee": 16837, "Ġmarine": 16050, "ĠXIV": 42667, "ĠParenthood": 18461, "iling": 4386, "Ġmol": 18605, "Ġ1986": 12113, "not": 1662, "Ġmarks": 8849, "Ġno": 645, "Alien": 44501, "Ġuseful": 4465, "ĠNotes": 11822, "ĠColomb": 16872, "ĠAllow": 22507, "ĠWorker": 35412, "ā": 189, "Ġruthless": 29541, "Ġtast": 14854, "Occ": 29223, "Ġunderworld": 42494, "ĠImport": 17267, "Ġ216": 26881, "asms": 34432, "Ġbur": 4356, "ĠFinally": 9461, "ause": 682, "Ġrevealed": 4602, "Ġcopying": 23345, "Ġc": 269, "ĠClash": 33117, "Ġviolence": 3685, "Ġcurriculum": 20583, "uffy": 15352, "Ġdement": 24251, "ĠCf": 43216, "ĠDays": 12579, "ĠFAQ": 18749, "herry": 13372, "ĠAthens": 21891, "Ġcautiously": 39640, "Ġposed": 15459, "Îµ": 30950, "ju": 14396, "Ġworkplace": 15383, "Ġreceived": 2722, "Ġalleged": 4260, "Ġvariable": 7885, "Ġmonsters": 10963, "Ġexpulsion": 38812, "Ġnude": 26349, "ĠLiverpool": 11761, "Ġamounted": 30008, "Ġeliminated": 15254, "Ġdoctrines": 32645, "Ġpsyche": 39006, "ĠAlibaba": 41992, "Andrew": 20508, "Ġalgae": 33773, "Blake": 37849, "acket": 8317, "AME": 10067, "Delta": 42430, "ĠDanger": 20419, "parent": 8000, "Ġruns": 4539, "buf": 29325, "375": 22318, "Ġreducing": 8868, "MAC": 44721, "acan": 50195, "Nevertheless": 29011, "ecause": 3156, "Ġwelcome": 7062, "Ġkingdom": 13239, "Ġsnippets": 45114, "ettle": 23570, "Ġsolic": 25806, "Ġperfect": 2818, "Ġconserve": 45075, "Dex": 48875, "iving": 1412, "ĠBerks": 45167, "ĠUFO": 19728, "Ġscandal": 10731, "Ġknob": 36842, "Ġutmost": 27878, "ĠGirls": 12002, "ĠAverage": 13475, "ippery": 29530, "Ġresignation": 18525, "Ġpecul": 18699, "Ġfostering": 44209, "Understanding": 43467, "mys": 28744, "Ġthemes": 13460, "Ġfailing": 9894, "Cut": 26254, "Ġcombust": 27500, "ople": 643, "Ġbiblical": 24726, "Ġprefers": 26237, "Ġcomputational": 31350, "Ġfearing": 33188, "ĠPsychology": 18430, "Ġey": 1926, "Ġyacht": 43207, "Ġvolunteers": 11661, "liction": 41101, "--------------------": 19351, "abad": 17325, "Ġrattled": 48588, "FD": 26009, "Ġpardon": 27322, "ault": 1721, "ĠVengeance": 37120, "Ġceleb": 10624, "Ġsuccumbed": 47290, "Ġboy": 2933, "Ġsweaty": 47599, "aires": 17693, "ĠAfghans": 48336, "ĠJah": 48984, "ĠPap": 14185, "ĠHazard": 32224, "ĠShields": 30512, "Ġtransition": 6801, "Thomas": 22405, "±": 109, "ĠWendy": 28314, "Ġconcise": 35327, "Ġmaritime": 30017, "Ġtrustworthy": 34412, "ĠWI": 29360, "Ġsynthetic": 18512, "relative": 43762, "ĠTalks": 47595, "Ġtrigger": 7616, "ĠCongress": 3162, "Ġincumb": 19742, ",)": 35751, ".''.": 50113, "Ġanthology": 43469, "Ġdownturn": 34540, "Ġfollows": 5679, "Ġnorthwest": 24821, "wreck": 39238, "ĠDianne": 49197, "Ġteaspoons": 47234, "ĠFt": 45231, "ĠKiller": 19900, "Ġliberation": 22256, "Ġnumbered": 25840, "agon": 1840, "Ġexcellent": 6275, "icably": 41685, "Ġoriginating": 37962, "ĠEncyclopedia": 36732, "Ġdeal": 1730, "ebook": 16497, "Ġheats": 37876, "atinum": 16881, "Scan": 33351, "_____": 29343, "ĠEthiopian": 47689, "Are": 8491, "Ġholistic": 42923, "ĠGore": 17557, "Ġprovoking": 45625, "ĠEthics": 25092, "ache": 4891, "Ġwel": 5029, "Ġcad": 20603, "Ġpunish": 6878, "Ġbolstered": 48677, "SpaceEngineers": 31032, "ĠGuantanamo": 34378, "ĠCommando": 47150, "fashioned": 28776, "ĠWe": 775, "Ġeyebrows": 26928, "Ġadvertisers": 27835, "Ġtied": 8165, "ĠNJ": 18732, "Ġbombs": 12134, "ĠPwr": 49267, "Ġtriv": 19876, "Ġsummer": 3931, "Ġretired": 9880, "Ġperiod": 2278, "aldehyde": 44895, "remove": 28956, "ĠRus": 9223, "Ġradiator": 50036, "ĠCommittees": 27808, "ĠPh": 1380, "Ġconsist": 3473, "Ġmarvelous": 43937, "ATIONAL": 29912, "viously": 8647, "ĠClaudia": 50214, "antasy": 34921, "ĠHorowitz": 47591, "Ġdrowned": 30859, "ĠMolly": 30236, "ĠStyles": 44963, ".'\"": 11496, "Ġfracking": 25441, "Ġ295": 34772, "AMES": 29559, "Ġ180": 11546, "ung": 2150, "ĠNick": 8047, "ĠFargo": 28125, "ĠMyster": 12099, "Ġgoodwill": 36374, "ave": 1015, "ĠGul": 23472, "Dad": 46270, "earchers": 16604, "Ġcivilian": 11107, "ĠPacks": 46780, "ossom": 25548, "ĠCommercial": 22724, "Ġmishand": 49530, "hat": 5183, "ĠReact": 21492, "ãĤ¶": 48458, "ricular": 41001, "ĠHa": 9398, "Ġtend": 4327, "ĠGranger": 46236, "ĠStandard": 8997, "usk": 17990, "ovation": 17882, "Ġallow": 1249, "ĠAntarctica": 30185, "ĠJiu": 42310, "Ġwash": 13502, "Ġwandered": 36036, "Happy": 25082, "Ġcrises": 25712, "Ġplayground": 24817, "Lear": 14961, "ĠUmb": 35716, "Ġball": 2613, "ï¿½ï¿½ï¿½": 48585, "fill": 20797, "ĠTie": 36286, "marg": 30887, "Ġstatus": 3722, "ĠAlbum": 23999, "Ġpredict": 4331, "ĠLei": 48579, "Ġantagon": 23775, "Ġcrowdfunding": 33851, "Ġundisclosed": 33457, "Ġfiance": 47819, "ĠGates": 15953, "Der": 28532, "Ġgenocide": 20744, "æĪ¦": 36704, "ĠLU": 50168, "Ġdebian": 50001, "Ġinsofar": 44061, "ĠReuters": 8428, "Ġvel": 11555, "Ġunworthy": 49284, "Ġpier": 17748, "ĠFey": 39775, "criminal": 45955, "Ġchampioned": 39257, "Ġproduces": 11073, "Ġsustainable": 13347, "ossibly": 20846, "Paris": 40313, "supported": 15999, "Ġperm": 9943, "Ġmanaged": 5257, "Ġera": 6980, "261": 30057, "Ġusers": 2985, "berries": 20853, "Ġswayed": 47632, "Ġintr": 9913, "FA": 7708, "Ġwasting": 24430, "ortion": 5817, "Security": 24074, "despite": 41081, "Ġtrolling": 38098, "Ġdistinguish": 15714, "ĠSpot": 15899, "people": 15332, "ĠShards": 46464, "ĠMedline": 34582, "Ġcognition": 31119, "ĠPhysicians": 46206, "ĠKiw": 40011, "Ġranged": 17929, "Ġbuilder": 27098, "ĠUniverse": 11950, "Ġputting": 5137, "ĠSantorum": 34008, "Ġinclud": 846, "Ġmiss": 2051, "Ġdissenting": 39527, "ĠCzech": 16639, "ĠPast": 11303, "Ġincomes": 18696, "ãģı": 31917, "icent": 36712, "ĠArchbishop": 36746, "widget": 42655, "ĠRevision": 46604, "ĠCode": 6127, "Ġworshipped": 46204, "nam": 7402, "Ġsubsidized": 37317, "NZ": 37371, "Ġtrash": 13913, "ardi": 22490, "rouse": 46494, "Ġmarqu": 44054, "ou": 280, "ĠConstantinople": 46369, "Ġ\"+": 43825, "Ġinterim": 19303, "MC": 9655, "righteous": 49955, "ĠWend": 21042, "ĠMohammad": 29674, "ecided": 35503, "Ġnanop": 46661, "328": 34256, "gran": 46324, "freedom": 41295, "Ġinvites": 27671, "usion": 4241, "Ġcaus": 26846, "Ġstaying": 10589, "itamin": 40746, "ĠHyper": 15079, "hop": 8548, "Ġstandings": 33864, "ĠRide": 21640, "Ġann": 1529, "Ġbecoming": 5033, "ĠMRI": 30278, "ĠBulletin": 30551, "Ġbilingual": 48116, "Ġplacement": 13127, "Ġvanity": 39609, "Ġcleaned": 20750, "Ġadore": 47194, "ĠSikh": 34629, "ĠColumn": 29201, "ĠAuschwitz": 37992, "joice": 41026, "ceans": 19961, "Ġhammer": 15554, "ĠMARK": 39641, "Ġconsiderable": 11091, "ĠAj": 22028, "ĠKessler": 46474, "hedon": 46086, "isted": 6347, "ĠJinn": 48653, "Ġlitres": 49622, "Ġtablespoon": 33107, "Ġmiser": 18790, "package": 26495, "Ġannotations": 37647, "utters": 46973, "aved": 9586, "Across": 40553, "Ġexponentially": 35529, "witch": 42248, "ĠLikely": 45974, "Ġcommunists": 40938, "Ġincumbent": 23526, "ĠHapp": 18321, "Ġrabb": 19368, "Ġboosts": 31822, "ĠPOP": 37586, "ĠIsraeli": 6085, "ffic": 2108, "ACH": 16219, "chanted": 28923, "Wo": 49450, "Ġintoxicated": 35344, "Ġhub": 12575, "ĠAram": 39026, "ĠStef": 22350, "Ġdenomination": 47491, "Ġextending": 16610, "357": 27277, "Ġdisbel": 23935, "Ġ249": 34620, "UME": 38340, "Ġparameter": 11507, "create": 17953, "eddy": 21874, "ĠBel": 3944, "Base": 14881, "ĠKass": 40511, "Ġrentals": 39457, "Ġtrapped": 13640, "rand": 25192, "Ġsnipp": 26911, "Ġfolders": 24512, "B": 33, "bread": 29573, "Ide": 41452, "ĠArk": 9128, "atic": 1512, "Ġattack": 1368, "urer": 15051, "Sun": 16012, "Ġpixel": 17465, "father": 11358, "Ġbeers": 16800, "ATE": 6158, "oin": 36743, "play": 1759, "depending": 44023, "Ġhumanoid": 34870, "Ġphotograph": 8408, "Ġgithub": 33084, "ĠDes": 2935, "Ġtelecommunications": 27473, "Ġsympathy": 20242, "Ġundo": 23981, "Ġ560": 38089, "ĠMODULE": 33893, "Ġmage": 29241, "Ġandroid": 19286, "#": 2, "Ġservice": 2139, "iosity": 15023, "Ġunearthed": 41562, "ga": 4908, "Ġge": 4903, "work": 1818, "Love": 18565, "looking": 11534, "ĠSE": 7946, "Ġcircuit": 10349, "Div": 24095, "Ġsuccinct": 46263, "Ġcodes": 12416, "Ġhunt": 12601, "ster": 1706, "Ġbrightest": 33871, "ĠâĿ": 43074, "Ġtrapping": 43338, "Ġ84": 9508, "ĠSTATS": 37889, "point": 4122, "Ġhovering": 33627, "ĠLex": 17210, "Ġcongratulated": 47630, "Track": 24802, "âĢĶ": 960, "cyl": 38801, "Ġtort": 7619, "ĠJonah": 45447, "plug": 16875, "blogs": 49096, "agraph": 6111, "696": 38205, "Ġvow": 23268, "=\"/": 35922, "ca": 6888, "htaking": 34148, "ĠDortmund": 36888, "Ġsheet": 9629, "Ġrigs": 45932, "ociated": 19293, "747": 48882, "Ġchickens": 25972, "registered": 33736, "Eventually": 28724, "orsche": 26164, "isoft": 29719, "Ġfixtures": 34609, "Ġvivid": 21002, "ĠContrast": 47011, "ãĤ¢": 11839, "ĠHomeless": 47706, "Ġsister": 6621, "367": 27824, "Ġcoffers": 47295, "ãĥĺãĥ©": 34473, "Ġeagerly": 30130, "ĠAlec": 38285, "ĠTatt": 36711, "Ġproject": 1628, "cott": 14612, "terror": 14007, "ĠRevis": 46146, "ĠAmon": 42109, "Ġavg": 42781, "ĠCycl": 28007, "ĠGeneva": 20552, "Ġattacker": 15250, "Ġ@@": 25248, "ĠReligious": 23945, "ĠACL": 17382, "ĠHugo": 25930, "Ġmall": 17374, "duty": 26278, "Ġbandwagon": 49401, "Ġrenovation": 36011, "Ġsupportive": 16443, "Ġse": 384, "Ġreperc": 32846, "Ġ275": 25829, "Ġmasters": 18159, "inn": 3732, "Ġimperative": 23602, "mia": 20730, "\\.": 17405, "erg": 6422, "ĠClayton": 32108, "126": 19420, "ĠUA": 46164, "Ġimpressed": 12617, "Ġbuilt": 3170, "Ġhither": 37706, "Ġv": 410, "1968": 42246, "Box": 14253, "Sum": 13065, "0100": 39103, "Mac": 14155, "iya": 21008, "Ġowns": 12216, "Ġunsett": 29286, "Ġ({": 37913, "ĠBarron": 47412, "gae": 25002, "ĠTurn": 6756, "ĠNorse": 38419, "Ġtongue": 11880, "Ġheterosexual": 24026, "ĠDickinson": 47485, "Ġinvestigator": 20725, "Ġfounder": 9119, "asso": 28372, "ĠDHCP": 43729, "irlf": 9841, "Ġroadway": 35852, "Ġincapac": 38533, "Ġstri": 2338, "ĠMad": 4627, "activated": 33106, "Ġimitate": 44638, "ĠRebell": 32032, "eller": 12368, "ĠMend": 20442, "ĠMom": 11254, "Ġunaccount": 48422, "Ġrestrictive": 26258, "rite": 6525, "Ġfumble": 41405, "Limit": 39184, "ĠLiberties": 34226, "select": 19738, "bre": 4679, "anie": 34166, "ĠRodgers": 19947, "Bra": 42333, "Ġ(+": 11502, "ITY": 9050, "Ġstrip": 10283, "ĠShia": 27424, "Ġfootprints": 48012, "Ġcourageous": 34010, "endi": 43109, "ĠPKK": 35176, "Ġé": 16268, "Ġgeometry": 22939, "665": 36879, "Ġrulings": 31532, "AL": 1847, "hoe": 38979, "Ġbeverages": 24173, "Ġharvest": 13222, "109": 14454, "Ġfile": 2393, "aez": 47246, "1950": 42751, "Ġ146": 22986, "Ġawait": 25507, "Ġdevelopers": 6505, "boot": 18769, "oreal": 39396, "NH": 33863, "Ġmaintained": 9456, "ĠLegisl": 12288, "ieth": 19235, "panic": 35843, "Ġstances": 47814, "Ġgifts": 13201, "forum": 27302, "Ġetc": 3503, "tiny": 44152, "Ġrecycling": 25914, "ĠPK": 29673, "ĠShack": 41149, "enh": 16550, "Ġfart": 15189, "February": 21816, "ĠNord": 18687, "Marvel": 38864, "`,": 47671, "Ġmisdemeanor": 22403, "Ġexercise": 5517, "ĠTalk": 12167, "ĠReincarn": 15083, "Ġregulations": 6647, "asca": 42688, "idation": 24765, "677": 40179, "Ġneon": 25988, "a": 64, "ĠRamadan": 37604, "ĠHolmes": 17628, "hers": 7084, "bush": 50231, "Ġslots": 17314, "Ġboxing": 21576, "Ġtownship": 42823, "ĠRational": 46863, "atters": 34387, "ĠABS": 29950, "ĠJelly": 37152, "ĠLevi": 20196, "ĠDifferent": 20615, "ĠNost": 48150, "ĠIndian": 3942, "mit": 2781, "Ġeng": 1786, "yll": 25727, "ainted": 14215, "antry": 21238, "acus": 48628, "Ġcommandments": 43651, "Minimum": 44046, "ĠBlind": 24507, "ãĤĭ": 25748, "Ġneuronal": 36347, "Quite": 44959, "ĠDawson": 32801, "Ġsleek": 33143, "isites": 31327, "Ġenlightened": 34964, "ĠMen": 6065, "Ġradicals": 32842, "oga": 10949, "without": 19419, "Ġover": 625, "Ġtyr": 22934, "Ġdolphin": 44136, "andestine": 35887, "ĠSteele": 28549, "Ĝ": 216, "ĠAdministration": 8694, "Ġprohibiting": 30363, "ĠSeen": 34310, "ĠMoney": 12911, "chen": 6607, "Ġstatue": 15207, "ĠNatalie": 35571, "Ġsouth": 5366, "ĠMcGee": 45476, "ĠPit": 16889, "Ġgrow": 1663, "Ġcommentator": 28823, "477": 32883, "587": 44617, "Ġinco": 44237, "Ġantique": 38504, "Ġtopic": 7243, "Ġtap": 9814, "acists": 33194, "agonal": 27923, "ĠSchwe": 40430, "ĠLuigi": 39139, "Companies": 49111, "Ġreceiver": 9733, "Ġimplication": 26863, "computer": 33215, "drivers": 36702, "community": 28158, "conom": 1519, "ĠContest": 27297, "ĠObi": 46662, "Weight": 25844, "Ġsatisfying": 19201, "bull": 16308, "Ġclinicians": 41883, "ĠSmith": 4176, "ĠAmend": 32218, ".*": 15885, "FC": 4851, "Ġpacif": 47617, "IVER": 38757, "Ġhumiliation": 32415, "ĠLAN": 24192, "ĠSD": 9834, "umb": 2178, "ĠMonkey": 26997, "Ġrainbow": 27223, "200": 2167, "ĠRef": 6524, "obic": 20803, "Ġpieces": 5207, "Ġcelebrate": 10648, "ĠColor": 5315, "kin": 5116, "uilding": 6963, "Ġaffidavit": 23942, "Ġmillisec": 33606, "Ġgenerations": 10439, "ĠCharleston": 26070, "Ġmaximizing": 48350, "ĠKindle": 27114, "RAL": 35296, "ĠObserv": 19243, "Ġ203": 27408, "indu": 10259, "Ġrealize": 6537, "Ġunpublished": 42686, "ĠBread": 28731, "Ġmur": 4636, "ĠPatron": 43315, "Ġmantra": 32628, "almost": 28177, "Console": 47581, "Wisconsin": 49097, "ĠSlug": 41635, "Els": 45507, "ĠDal": 12348, "ĠKitchen": 22541, "ĠVic": 24017, "ĠFaces": 48463, "cgi": 37157, "Opt": 27871, "idium": 43523, "ĠSignificant": 49631, "Ġmagazines": 16695, "orrect": 47315, "Ġevacuation": 24663, "Ġguns": 6541, "Ġblasp": 30459, "Ġaffection": 17696, "Ġspawn": 10922, "Rs": 31273, "Ġcaveat": 36531, "Ġenthus": 8485, "ĠCompetitive": 47665, "thy": 20057, "ĠFug": 47832, "mitter": 37974, "Ġgad": 23793, "Ġtossed": 22591, "Ġprevail": 28615, "Political": 35443, "Ġtenant": 18285, "Ġfarewell": 33458, "Ġworking": 1762, "Ġparap": 41406, "Ġpronounced": 16293, "Ġinsist": 16361, "ĠPole": 29385, "Islamic": 26723, "Ġtopping": 34366, "Ġpleaded": 16407, ",,": 9832, "Ġunprecedented": 13029, "ILLE": 33844, "Bron": 18760, "Ġ170": 16677, "Ġsubmissions": 22129, "ĠSet": 5345, "Ġrealised": 19169, "205": 21261, "Ġ(&": 35494, "Ġfights": 11418, "ĠCowboy": 48706, "Ġaforementioned": 20794, "Ġstumble": 35174, "ĠPry": 32500, "Ġdelete": 12233, "ĠTate": 31376, "Ġrewritten": 30101, "Ġjoy": 8716, "Ġsty": 8944, "Ġdehuman": 48772, "Ġload": 3440, "Ġfrogs": 37475, "Ġbashing": 48419, "Ġspoil": 20851, "Ġcited": 9181, "oops": 44860, "Ġdispleasure": 47313, "upper": 45828, "ĠAbbas": 28354, "Ġfighter": 10543, "893": 49682, "isy": 13560, "Ġvolatility": 30772, "Ġemergencies": 36047, "692": 46589, "dayName": 45392, "ĠRoot": 20410, "ĠPSP": 48651, "Ġabundant": 23263, "ight": 432, "URRENT": 39237, "Ġans": 9093, "resist": 35119, "Ġdig": 3100, "ĠBows": 31417, "Ġmodification": 17613, "Ġnewcomers": 29661, "ĠChristina": 33673, "ĠâĶľ": 33468, "ĠSwords": 25199, "shirts": 23231, "ĠTRI": 37679, "ooters": 48316, "strike": 33069, "Twe": 32665, "ĠCrown": 12223, "ceiver": 39729, "è»": 43102, "opoulos": 20338, "idable": 23321, "ICO": 22707, "jc": 48055, "tesy": 27090, "acteria": 10634, "Ġmines": 18446, "Ġyouth": 6205, "ĠTransportation": 15198, "ĠJav": 49247, "Ġseating": 24800, "Ġclothes": 8242, "Ġcoercion": 32000, "Ġden": 2853, "ĠBryan": 17857, "Ġhotel": 7541, "ĠRahul": 48543, "ĠPut": 5930, "Ġapprovals": 45818, "889": 39121, "Ġfing": 8038, "Ku": 41733, "Ġblaster": 48131, "Desc": 24564, "Ġsurvey": 5526, "UID": 27586, "nces": 3179, "ĠCivic": 31593, "Ġenzymes": 29120, "Ġende": 15535, "Ġcompulsion": 48672, "Ġunexplained": 43286, "ĠRichmond": 16940, "ĠBarber": 35338, "ĠTrance": 47215, "ĠLet": 3914, "ĠIBM": 19764, "ĠDalai": 41180, "Ġtimed": 28805, "qu": 421, "channelAvailability": 39757, "CLE": 29931, "BILL": 39888, "Ġinnovations": 25438, "inent": 7233, "ĠKah": 38798, "Ġsignific": 2216, "ĠRule": 14330, "ĠDominic": 36401, "INFO": 10778, "ĠVeg": 8427, "Han": 29919, "Ġirritating": 42010, "Ġdependent": 10795, "ĠDocument": 16854, "ĠBurma": 40306, "ĠHamilton": 11582, "ocations": 20968, "acha": 34518, "ure": 495, "ĠChev": 25233, "zig": 38262, "ĠRazer": 47890, "Ġsalvation": 21005, "Ġadventurous": 39770, "Ġhikes": 34309, "ĠYong": 40633, "ĠHawk": 26698, "ĠOttawa": 14074, "ĠRV": 31367, "Ġgrades": 19051, "ĠHive": 33235, "ĠPrepare": 43426, "Ġfav": 2090, "Ġesche": 42833, "Â¶": 26604, "ger": 1362, "Ġexpansions": 36383, "iji": 20770, "Ġescaping": 25071, "ĳå£«": 39374, "Ġcling": 36331, "models": 27530, "Ġperiodically": 26034, "Ġplease": 3387, "Ġsandwich": 20433, "ĠMid": 7215, "ords": 3669, "Ġreigning": 40098, "Ġpal": 6340, "inker": 24275, "Please": 5492, "operator": 46616, "ĠDistance": 34600, "Ġstocks": 14420, "Ġyield": 7800, "ITS": 29722, "ĠBombay": 48918, "ĠRs": 12820, "Ġtops": 21246, "ĠJess": 12707, "mails": 26165, "child": 9410, "Ġimpractical": 43994, "Ġplaying": 2712, "Jr": 50123, "Ġunn": 41231, "cause": 25587, "Ġgrab": 5552, "Ġinferred": 41240, "Yep": 47834, "iction": 2867, "Ġattribut": 24548, "ĠAustralians": 24933, "entry": 13000, "ĠCoverage": 33998, "Ġweakest": 34968, "Ġcoincides": 47387, "eks": 2573, "Ġstarship": 48744, "Ġdays": 1528, "546": 49489, "304": 21288, "Ġacquired": 9477, "Ġwithholding": 34180, "ĠTue": 30030, "Ġphilosophers": 24858, "pat": 8071, "ĠGandhi": 22081, "ĠWrong": 28843, "Ġenglish": 46932, "Ġmast": 17288, "Ġdiminished": 23476, "Ġantidepressants": 41587, "ĠFurthermore": 11399, "Ġanimations": 22407, "Ġdod": 20764, "Ġloosely": 28845, "Ġlevy": 35783, "Ã°": 27214, "ĠTownship": 32115, "ĠSTAND": 49053, "Ġwithdrawing": 36395, "Ġuncont": 28605, "ĠRevenge": 24366, "Ġworse": 4785, "sexual": 18338, "ĠVista": 25160, "ivari": 35460, "sheet": 21760, "ours": 4662, "Ġcompliance": 11846, "Ġcolors": 7577, "Ġbehavioural": 41672, "clave": 44281, "ayed": 16548, "ISION": 42446, "ilet": 41550, "337": 31496, "Ġpref": 7694, "Ġhomeless": 10463, "ĠRELE": 49968, "Former": 14282, "iminary": 38429, "Ġperspectives": 22582, "Ġwearing": 5762, "smart": 27004, "Ġleaving": 4305, "listed": 17935, "ĠFasc": 41467, "Ġshortcuts": 32953, "ayson": 34907, "Ġdictate": 27861, "ĠDelicious": 39528, "asm": 8597, "ie": 494, "ython": 7535, "Ġdecoration": 42050, "ĠTi": 16953, "ĠACC": 15859, "ods": 12978, "ĠAcer": 49606, "reply": 47768, "ĠSPORTS": 47515, "Ġcruc": 27020, "667": 28933, "osp": 2117, "iott": 20773, "ĠGolem": 27167, "ison": 1653, "324": 33916, "Ġguarding": 33294, "Ġ92": 10190, "Fox": 19399, "rupted": 31590, "Ġelectronics": 17075, "ĠRings": 26028, "ĠMcCoy": 28901, "ourses": 39975, "Ġnovice": 38751, "Ġseal": 13810, "ĠProceedings": 30641, "Ġnoticing": 28107, "ĠRacing": 14954, "ĠNCAA": 15244, ">)": 43734, "Ġinspiring": 20886, "inding": 6020, "ĠEth": 9956, "ession": 2521, "Ġtell": 1560, "oss": 793, "alph": 17307, "Ġmillions": 5242, "Ġscientists": 5519, "ĠLog": 5972, "ĠDeposit": 44158, "pee": 39463, "Ġworship": 11892, "Ġhypothesis": 14078, "ĠSTAR": 25424, "ĠPony": 30377, "sim": 14323, "ĠBurton": 27209, "Ġcream": 8566, "ĠWalsh": 24104, "Ġanesthesia": 49592, "compan": 34390, "OAD": 41048, "oth": 849, "ĠFilip": 24600, "osate": 33931, "--------": 982, "lees": 49410, "Ġrusty": 47855, "Ġchurches": 14422, "ĠCatholic": 7835, "xf": 26152, "Ġapocalyptic": 41792, "Crew": 46724, "ourt": 15666, "azes": 36096, "Ġbutcher": 38042, "ĠLogan": 22221, "Ġformed": 7042, "Ġwatching": 4964, "perhaps": 28998, "Ġdrag": 6715, "Leaks": 17874, "ared": 1144, "Ġfaced": 7452, "ĠProsecut": 26233, "ĠâĨĳ": 24935, "Ġinserts": 42220, "ĠSleeping": 31148, "234": 24409, "ĠEthiopia": 31592, "Ġsheltered": 49448, "Ġauthor": 1772, "yg": 35641, "dozen": 44932, "Ġreluctant": 18416, "Scotland": 47230, "020": 33618, "Ġmanga": 15911, "Ġnever": 1239, "rÃ©": 29350, "Ġdefined": 5447, "Narr": 45750, "ĠFoods": 23201, "Ġmuscular": 27014, "rates": 9700, "ĠJaw": 40863, "ĠLakes": 24153, "Ġcumulative": 23818, "Ġsemen": 34972, "atorium": 30732, "ĠTrophy": 25640, "utterstock": 28819, "Ġcass": 30606, "Red": 7738, "ĠGaal": 41308, "Ġengineers": 12037, "Ġvapor": 20199, "Į": 234, "waters": 41555, "ĠEnough": 31779, "Ġshifting": 15852, "Ġsubtle": 11800, "assemb": 34455, "ĠSCH": 22374, "Coun": 31053, "ĠEmerald": 28909, "ĠEnlight": 30564, "amb": 4131, "Australian": 38036, "Ġsoda": 20584, "von": 26982, "Ġwrapper": 29908, "ĠEllis": 21299, "ĠNotice": 17641, "ĠWalton": 34468, "Ġbumped": 38034, "DN": 35504, "Ġreflections": 35066, "Ġtermed": 28569, "Depth": 48791, "ĠTemple": 10857, "tun": 28286, "Ġechoed": 22211, "ĠCamera": 20432, "Ġtracks": 8339, "iosis": 42960, "ĠYorkers": 38244, "Ġvehicle": 4038, "Ġincentives": 16538, "Â«": 24328, "[]": 21737, "ĠAllen": 9659, "Jose": 23409, "ĠExtras": 43620, "apse": 7512, "Ġantidepressant": 41897, "883": 49287, "Ġadvantages": 13391, "ji": 7285, "Ġdreams": 10625, "Ġmarriage": 4845, "Ġinforming": 29140, "Ġsaints": 31728, "vertis": 3346, "Ġ348": 44084, "etary": 8527, "cellent": 5666, "ĠIndigo": 40673, "Ġconcessions": 26739, "pha": 7566, "Ġconstitutes": 19300, "strate": 23104, "Ġopener": 21996, "xxxx": 12343, "photo": 23074, "ĠBie": 31700, "suits": 16554, "Ġsurgery": 8185, "ĠAberdeen": 44985, "Ġdischarged": 26476, "ĠVeh": 15118, "Ġturnout": 21666, "ĠEnable": 27882, "Ġpatriarchy": 41932, "pe": 431, "Ġpreferring": 41109, "recomm": 47335, "Ġtrustees": 36636, "Ġ72": 7724, "ĠEdwards": 17381, "alis": 27315, "Ġ;)": 35540, "Ġlesbian": 17834, "ĠF": 376, "Ġsubstit": 21436, "ĠIslamabad": 36878, "ĠDetail": 42585, "Ġread": 1100, "ĠHello": 18435, "Ġhorizontally": 36774, "Ġcraving": 34357, "ĠAnkara": 28760, "ĠCOMM": 22240, "blem": 11253, "rison": 7426, "ĠMol": 17958, "CO": 8220, "Ġremained": 6150, "ĠOrient": 35275, "etz": 23773, "Ġmaneuver": 20186, "Opp": 27524, "ĠCath": 6250, "*.": 24620, "ĠMethods": 25458, "YN": 40760, "Ġcolleague": 16008, "aning": 7574, "ĠAgency": 7732, "Ġindividually": 17033, "ĠBetter": 11625, "rocal": 43270, "Kim": 26374, "Ġjuven": 18686, "Ġinstallations": 26162, "ĠMR": 17242, "IAS": 43429, "Ġlogistics": 26355, "HA": 7801, "ĠChoi": 42198, "Activ": 25526, "ribute": 4163, "ĠBrow": 19600, "Ġcamer": 3676, "ĠCache": 34088, "ĠMail": 11099, "NOR": 35510, "inky": 29246, "Ġcoax": 37700, "dream": 25966, "ĠTinker": 46316, "Ġjerk": 29757, "Ġcoerc": 24029, "AS": 1921, "zech": 15356, "ain": 391, "Ġchallenge": 4427, "Ġspoof": 42078, "dll": 12736, "ĠServ": 3116, "ĠEXT": 27489, "cooked": 46591, "auna": 32837, "Ġadvert": 6728, "KC": 36222, "ĠCraw": 20177, "chrome": 46659, "Ġfractures": 39381, "ĠGive": 13786, "Ġredu": 2027, "ĠEP": 14724, "ampions": 4350, "Ġsubsections": 46310, "ĠProvides": 47081, "ĠSasha": 32151, "ĠVictoria": 12313, "ĠHerman": 25028, "onso": 26666, "Ġadvisable": 46511, "525": 39088, "Ġsemif": 32948, "ĠAmateur": 48576, "utherford": 46923, "Ġ1909": 41507, "Ġhometown": 20994, "option": 18076, "mire": 47004, "ĠLibyan": 28661, "Ġsharply": 18939, "Ġethical": 15028, "ĠGoodbye": 44442, "å¦": 36685, "Ġmeasles": 30862, "\"/>": 26700, "Ġbacklog": 38780, "ĠCavaliers": 29411, "Ġresear": 4027, "ĠPublishers": 43403, "Ġuncommon": 19185, "ĠAtlantic": 10596, "ĠHamas": 15767, "Ġtranscend": 26231, "ĠHyd": 15084, "Ġappeal": 5198, "PT": 11571, "Ġdispatched": 26562, "Ġincomp": 13352, "Ġfestive": 43856, "ĠRam": 7431, "Ġresistant": 18290, "Ġprices": 4536, "opl": 20106, "ias": 4448, "Ġreinstated": 40685, "QUEST": 35780, "Definition": 36621, "Ġtransitioned": 49237, "Ġconcede": 33760, "ouf": 37116, "MAG": 45820, "bal": 6893, "Ġparticipated": 14888, "Ġbra": 8290, "Av": 7355, "Ġinvested": 13356, "Rah": 47135, "unker": 21705, "Ġdifficult": 2408, "ĠLoll": 46478, "Ġavenue": 36132, "Ġreluctance": 33506, "ĠStrait": 41407, "Ġdefender": 13191, "Mon": 9069, "edu": 15532, "Ġconsisted": 19954, "ĠSAY": 45687, "ĠGender": 20247, "Ġcops": 14073, "Ġencourages": 18656, "assic": 31635, "ulture": 6456, "Ġspot": 4136, "73": 4790, "Ġignite": 44794, "ĠCombined": 32028, "Ġdescriptions": 16969, "ĠClassic": 13449, "Ġpaved": 31285, "ighthouse": 32303, "ĠUse": 5765, "Ġnursery": 41326, "Ġexoner": 43507, "ĠSylv": 24286, "ensable": 33447, "Ġoverfl": 32876, "Ġoffline": 18043, "ĠCheryl": 37958, "ardon": 19917, "fre": 19503, "ĠConcord": 34732, "ĠExpo": 32330, "EB": 30195, "Ġfacing": 6476, "Ġamateur": 18585, "Ġiceberg": 34849, "Ġvacations": 48695, "Ġinterface": 7071, "stic": 11268, "Ġprecautions": 31320, "ĠZan": 47022, "Ġmattered": 33343, "DR": 7707, "ĠVermont": 16033, "ĠWidow": 39061, "Ġreduced": 5322, "ĠZimbabwe": 28589, "oms": 3150, "Ġguide": 5698, "Ġtraps": 20348, "Ġrelocated": 34233, "Ġsolder": 42809, "Ġbooths": 45496, "Ġgram": 14599, "å¾": 36181, "ĠFirst": 3274, "ĠWing": 13405, "Ġacclaim": 21684, "Ġdispens": 18905, "Ġprag": 23864, "Alabama": 49177, "ĠPunjab": 33328, "ĠMoy": 28523, "ĠCinderella": 40933, "ĠInfantry": 27749, "Ġdetermine": 5004, "Ġcaches": 50177, "abouts": 27880, "Ġweighed": 20261, "ĠUr": 8799, "ĠMinion": 43786, "eners": 36014, "ii": 4178, "Ġcitizenship": 14218, "Ġpersonalized": 28949, "Ġborrowers": 31617, "Fourth": 45530, "Ġburgeoning": 38935, "Ġvitri": 48950, "Ġfertile": 31192, "Ġremedy": 21210, "Ġpossessions": 23309, "Ancient": 44974, "Ġprofessionally": 28049, "Ġprotection": 4800, "DOWN": 41925, "Vector": 38469, "Py": 20519, "Ġmoms": 34015, "Supporters": 49422, "dir": 15908, "ĠPupp": 20926, "uggle": 33498, "ĠSheffield": 33496, "manager": 37153, "Ġspecial": 2041, "ĠGreat": 3878, "syn": 28869, "Ġmust": 1276, "uru": 14717, "heavy": 23701, "atto": 45807, "ĠPackers": 17832, "Request": 18453, "imore": 9401, "Ġliter": 4187, "ª": 103, "ĠJudd": 49554, "Ġcarrier": 11920, "ĠDLC": 18068, "rish": 37518, "ĠShank": 41595, "everal": 8438, "ĠSlaughter": 41148, "erc": 2798, "Ġsafe": 3338, "verson": 49589, "ĠJarrett": 48654, "isSpecial": 39714, "aration": 10186, "oan": 24611, "ĠExit": 29739, "uta": 29822, "ĠMarketable": 11966, "tp": 34788, "ĠCheong": 45348, "ĠPhill": 11877, "instance": 39098, "items": 23814, "Ġcharg": 2609, "Ġconform": 17216, "roup": 3233, "ĠHeaven": 11225, "Ġsiblings": 20569, "Ġrefinery": 44133, "Master": 18254, "maid": 23151, "terior": 14172, "Ġquotation": 35777, "Ġdominating": 30651, "ickr": 18994, "us": 385, "Ġautomotive": 29393, "Compar": 50249, "Bomb": 48478, "ĠHutch": 30492, "ĠContemporary": 38698, "cars": 37993, "Ġmonetary": 15331, "Ġcreed": 43514, "Ġcaloric": 48413, "ãģ®éŃĶ": 34633, "iversary": 9023, "ĠHorses": 49122, "Ġincorrectly": 23175, "ĠAlmighty": 33987, "107": 15982, "Ġdesperation": 31265, "Ġgiveaway": 39015, "Ġ1939": 24414, "often": 28950, "Ġnerv": 8660, "Ġabort": 15614, "OME": 13649, "ĠDual": 20446, "ĠShawn": 25225, "Ġsugars": 34476, "ĠCincinnati": 16137, "ĠTulsa": 36443, "Ġdiagram": 16362, "Ġsaturation": 36275, "Fi": 10547, "INST": 38604, "ward": 904, "ĠGundam": 32467, "Ġserving": 7351, "Ġdamage": 2465, "execute": 41049, "olerance": 37668, "Ġinhabitants": 17622, "Ġinteroper": 48817, "notice": 42138, "ĠGabe": 45513, "itatively": 48668, "Ġpo": 745, "âĢ¦]": 21476, "ĠSchultz": 26530, "Ġrehab": 14321, "hour": 9769, "Ġkeynote": 37332, "edited": 42131, "Ġpayroll": 22235, "aligned": 41634, "Ġgrassroots": 23783, "Ġconglomerate": 50240, "ĠArist": 23203, "ĠRailway": 32130, "ij": 2926, "ĠFirstly": 41039, "Ġsemi": 10663, "!!": 3228, "Bon": 20682, "Ġyes": 3763, "Ġconcess": 18806, "------------------------------------------------": 47232, "iman": 24086, "ĠUNIVERS": 49677, "ĠCarly": 35982, "Ġarrogant": 28868, "intage": 14630, "ĠCroat": 22422, "Maps": 47010, "rum": 6582, "Ġbrute": 33908, "Ġest": 1556, "Ġlethal": 17769, "Ġradi": 19772, "Ġthey": 484, "Bad": 22069, "Ġblob": 44812, "Ġsolitary": 25565, "ernal": 35220, "ĠSean": 11465, "kt": 21841, "ocking": 8629, "Ġexhibits": 27508, "ĠVariant": 38215, "ĠRequired": 20906, "Ġoppressive": 30983, "Ġincompatible": 27294, "hani": 29839, "ĠSeveral": 12168, "Ġaccountable": 16689, "Ġeluc": 49031, "Reddit": 22367, "Ġnegate": 44328, "Ġguesses": 44774, "ĠMBA": 45517, "Ġadaptive": 29605, "ĠPoster": 44996, "ĠDomain": 20021, "Ġmatte": 36908, "Ġmanag": 2358, "Ġindependently": 14799, "Ġclosing": 9605, "ĠMatthew": 9308, "Ġwellbeing": 40013, "Ġoffering": 6011, "Ġwhile": 981, "Ġcrafted": 18025, "ĠGuess": 37571, "ĠRos": 10018, "umbing": 28149, "ocent": 29421, "642": 41290, "ov": 709, "ĠCrate": 37504, "Ġbrightly": 35254, "Ġrecapt": 36791, "ĠIntellectual": 42443, "Ġfoolish": 19538, "Ġdisgusting": 23374, "ĠBard": 25654, "windows": 28457, "Ġcommer": 4412, "Ġdermat": 40363, "Ġaveraging": 20430, "anti": 17096, "Ġwhip": 22972, "Ġtrading": 7313, "rage": 8394, "ĠConstruction": 20395, "Ġinvitations": 42851, "Ġagree": 4236, "ĠEnlightenment": 39057, "Ġsupp": 802, "####": 4242, "arms": 8357, "ĠCharter": 23006, "%.": 7225, "805": 28256, "Ġadapting": 35135, "Ġprefrontal": 43118, "ĠRape": 35286, "Ġfrust": 6730, "ady": 4597, "agonists": 36764, "Donnell": 24853, "ĠChrom": 18255, "Ġunpredict": 20378, "Ġrewards": 11530, "ĠIndy": 26023, "ĠNevertheless": 15933, "Works": 23044, "Ġexplain": 4727, "ĠStretch": 44489, "025": 36629, "ĠRenaissance": 29396, "Guard": 24502, "Ġmc": 36650, "istical": 19929, "248": 23045, "Ġinterstellar": 48851, "ĠSubscribe": 19808, "ĠKenneth": 23632, "region": 36996, "iration": 15297, "Ġforb": 11747, "oshenko": 43934, "ÏĢ": 46582, "umping": 25218, "Ġbarg": 12828, "imer": 22723, "Ġplanets": 14705, "Ġattracted": 12725, "ĠOversight": 35968, "anas": 15991, "Ġinvoluntary": 37099, "ĠKub": 24921, "itution": 2738, "atlantic": 43342, "Ġpresently": 27606, "Ġmarketers": 41064, "Ġrefres": 17434, "pictured": 28852, "Ġinvolvement": 9750, "ĠDoom": 18688, "ĠEndurance": 43290, "ĠPower": 4333, "urrencies": 28018, "Ġtwelve": 14104, "Ġpressure": 3833, "aina": 42183, "180": 15259, "Ġbrewers": 36669, "aster": 1603, "Ġwidest": 46232, "cean": 5829, "ĠFar": 6755, "yet": 25907, "split": 35312, "Ġvol": 2322, "wa": 10247, "handed": 13638, "ĠMing": 26980, "ĠZombie": 14609, "Ġworks": 2499, "Ġnull": 9242, "arg": 853, "Ġsonic": 36220, "Ġgoodies": 39863, "ffect": 4812, "ĠPROG": 38688, "Ġco": 763, "Ġfriendships": 34596, "ĠHalloween": 16032, "resource": 31092, "adian": 18425, "èª": 45739, "Ġbackpack": 22526, "Ġrecover": 8551, "ĠWen": 31164, "uments": 2886, "Ġgray": 12768, "Ġpurchased": 8155, "Ġintrinsically": 48676, "Ġcrabs": 49172, "Ġsucc": 17458, "Ġmotivation": 14052, "Ġballoons": 35485, "uthor": 1457, "Ġnationalism": 24436, "Ġthrowing": 9644, "Ġcrush": 19813, "ĠTact": 15324, "Ġdeferred": 28651, "Step": 8600, "Ġgastro": 33131, "PB": 49079, "Ġbreastfeeding": 32613, "Say": 25515, "Ġdifficulty": 8722, "Ġyourselves": 27012, "vious": 1442, "ll": 297, "ãĥ¬": 24186, "brance": 28031, "Ġbroccoli": 44653, "year": 1941, "Ġgazed": 50255, "ĠLafayette": 41388, "ensible": 27339, "ĠVolunteer": 45202, "Share": 11649, "Ġinvoked": 24399, "oubted": 15973, "427": 42363, "Ġstaring": 16143, "ĠDET": 38267, "iosyn": 48448, "Ġoccasionally": 10491, "ĠOswald": 34374, "ĠFS": 23324, "Ġincorporate": 19330, "lets": 5289, "238": 23721, "One": 3198, "uploads": 39920, "ĠPlatform": 19193, "Ġveh": 2844, "Ġ245": 29637, "DEM": 39429, "Ġundergone": 29900, "Ġlegendary": 13273, "ĠAnything": 21035, "parency": 11944, "ĠJewel": 29151, "ĠDeVos": 39503, "and": 392, "Balance": 45866, "Ġcompens": 7144, "Ġforty": 16571, "Camera": 35632, "ish": 680, "Ġgreater": 3744, "atu": 33419, "Ġconvergence": 40826, "Ġpenetration": 23271, "atever": 3587, "oran": 31884, "ĠShard": 32822, "Ġarmored": 24856, "Ġappease": 47316, "ĠUSAF": 45353, "ritis": 27398, "047": 48000, "Ġbreed": 15939, "clean": 27773, "Ġgrinding": 28436, "!!\"": 37160, "Ġafterlife": 45076, "Ð¾Ð": 25443, "Ġdespised": 44990, "ĠPablo": 33185, "Ġisolate": 28091, "ĠTEAM": 33536, "ĠRaj": 13308, "better": 27903, "Ġcal": 2386, "Ġsurrounded": 11191, "Optional": 30719, "ĠShu": 32344, "este": 29872, "d": 67, "ĠAluminum": 35859, "quel": 31735, "Feature": 38816, "ence": 594, "Ġaccepted": 6292, "Stand": 15480, "Ġhel": 932, "Ġfundament": 14387, "inia": 43168, "Ġensemble": 34549, "Ġperceptions": 23574, "á¹": 26292, "ĠKane": 20055, "Ħ¢": 8008, "Ġlod": 19527, "ĠJJ": 38775, "Ġsom": 3870, "Ġbackdrop": 26373, "resent": 2028, "Ġrepository": 16099, "brain": 27825, "RIPT": 46023, "imp": 11011, "ĠLambert": 36978, "lder": 6499, "$.": 35307, "Ġregex": 40364, "Ġozone": 37170, "Sports": 18153, "licted": 17823, "ĠTik": 46338, "ĠBro": 2806, "ĠDrone": 38959, "ĠWarwick": 49398, "ĠNormandy": 43231, "Ġcurtains": 41160, "Ø§ÙĦ": 23525, "research": 34033, "contained": 45964, "terson": 23192, "ĠEveryday": 48154, "ĠSands": 35359, "MAN": 10725, "Ġadhere": 26325, "Ġ``(": 11592, "Ġendorsed": 17441, "Ra": 21762, "Ġsteals": 28052, "ĠBore": 45409, "rated": 4111, "ĠZone": 13035, "Ġmisguided": 30168, "ĠHunter": 9055, "Parameter": 36301, "ĠDell": 23617, "Ġdisapproval": 40174, "ressed": 2790, "Focus": 34888, "Ġtraffickers": 40421, "Ġcircumvent": 33256, "CLA": 16827, "ÃŃa": 29690, "ĠFIL": 34020, "Ġtribunal": 30105, "Beg": 24586, "che": 2395, "Ġthriller": 32251, "ĠRita": 42605, "Ġbraking": 36682, "Ġcheeks": 25839, "myra": 49216, "Buff": 36474, "Ġgrou": 1132, "ĠBI": 20068, "Submit": 45135, "Ġrespondent": 31282, "390": 25964, "ĠClaw": 30358, "ĠVoy": 23020, "Ġeclips": 39097, "ĠSupreme": 5617, "Ġprophetic": 49054, "awa": 6909, "Ġlobe": 49918, "acle": 6008, "ĠReloaded": 33114, "worms": 49617, "COM": 9858, "ĠTuesday": 3431, "urger": 32650, "ĠGlenn": 17551, "ĠCthulhu": 39316, "Ġgrandfather": 17695, "271": 28977, "ĠLeopard": 49072, "Ġbelieve": 1975, "ĠOthers": 12691, "citizens": 46801, "ãģķ": 43357, "Ġastronomy": 37145, "Ġsources": 4237, "eele": 26213, "Ġmenacing": 39579, "aughty": 28496, "ĠSher": 6528, "ĠInk": 33068, "Ġasserts": 29348, "ĠBees": 46698, "Ġobserve": 12414, "Ġwinters": 45764, "ĠTransfer": 20558, "about": 10755, "Ġwithdrawal": 15220, "ĠPrague": 37079, "ignty": 17224, "ika": 9232, "yo": 8226, "ĠPeak": 23974, "Ġunilateral": 37095, "entity": 26858, "Ġspeaker": 10834, "isal": 28456, "Ġcrashing": 21899, "Ġminus": 20208, "Ġly": 22404, "ĠByron": 36719, "thirds": 17936, "riched": 30486, "Ġconnected": 5884, "Ġcheering": 29732, "ket": 7126, "ĠSil": 4243, "Ġremembers": 18140, "Price": 18124, "Ġglitches": 43705, "Ġwid": 9214, "Ġ./": 24457, "ĠPerformance": 15193, "ĠHero": 8757, "ĠLomb": 28503, "ĠPrepar": 38397, "Ġrewarded": 20945, "ĠAzerbai": 29830, "Ġsubreddits": 46386, "Ġstabilize": 32411, "ĠPubMed": 32131, "ciples": 6418, ";\"": 26033, "Ġgreatest": 6000, "ĠMED": 26112, "ĠJuice": 35161, "Ġoversized": 40931, "Ġbreath": 8033, "ĠFamily": 7884, "Ġreunited": 35440, "identified": 19107, "Ġpartition": 18398, "Mic": 25437, "Ġoverly": 17698, "ĠKevin": 7939, "Ġthreat": 2372, "total": 23350, "ĠGary": 10936, "Ġterms": 2846, "Ġvigilante": 49326, "EN": 1677, "bang": 36668, "Ġmechanics": 12933, "Ġrewarding": 23404, "Ġdepression": 8862, "ĠKeith": 14926, "Ġcords": 45173, "ĠIV": 8363, "ĠHitler": 11908, "ogical": 30766, "ĠSee": 4091, "Scroll": 29261, "Ġarrests": 14794, "atos": 35492, "ĠWis": 24884, "util": 22602, "Ġfarm": 5318, "heard": 23636, "Nearly": 27927, "ĠDISTR": 34957, "endered": 30398, "athed": 35932, "Ġ(.": 20262, "ĠAust": 2517, "ĠIc": 43042, "Ġcatchy": 46124, "ĠPax": 48008, "ĠFrames": 36291, "ĠEddie": 19478, "reader": 46862, "Ġrejected": 8606, "Ġsofa": 34902, "Distance": 45767, "auder": 29233, "Ġpressured": 32098, "Ġlittle": 1310, "ĠMechdragon": 35579, "Ġpapers": 9473, "Ġadoptive": 49378, "angular": 21413, "ovi": 47297, "elli": 23225, "ĠHaitian": 48723, "ĠIntro": 37219, "ĠFriendship": 39993, "gence": 12745, "Ġanth": 26794, "ĠBears": 15682, "feet": 39690, "ĠEngineer": 23164, ",'": 4032, "ĠHier": 36496, "Ġpiracy": 30955, "testing": 33407, "ĠVC": 26706, "Ġformulated": 34391, "incarn": 13211, "ĠBefore": 7413, "Ġterminals": 30237, "Ġestimate": 8636, "Ġresistor": 45032, "Ġcontempl": 19377, "Ġproportion": 9823, "ĠGift": 21208, "Maria": 46827, "tree": 21048, "Ġdevastating": 14101, "imb": 14107, "Ġadvancing": 19988, "ĠToy": 10977, "ĠYounger": 45174, "Ġculinary": 35956, "Parameters": 48944, "74": 4524, "ĠQuart": 48748, "Purchase": 47651, "ĠPuzz": 27985, "y": 88, "ĠTransform": 26981, "Ġdoi": 23899, "Ġcrystals": 24770, "aska": 8480, "Ġreader": 9173, "Daniel": 19962, "ĠValhalla": 48762, "¥µ": 35069, "Ġstates": 2585, "Ġ212": 23679, "ĠMarriage": 24509, "Ġsolely": 9944, "Ġthereof": 15370, "Ġtangled": 41431, "Ġinquest": 48314, "Ger": 38069, "imov": 44273, "Ġchicks": 43803, "Ġschools": 4266, "imating": 39204, "ĠSurprisingly": 47183, "ĠThrust": 49794, "verified": 47684, "Ġgrievances": 36121, "hunt": 35060, "Ġbutterfly": 35113, "aceae": 48319, "Ġyards": 5695, "ĠISP": 33086, "ĠDragon": 2851, "Ġcooks": 38383, "ĠNom": 21198, "Ġabstract": 12531, "LLOW": 44765, "temp": 29510, "ĠWide": 23399, "olving": 10890, "Ġfaulty": 30954, "Ġaccompany": 13873, "].\"": 29225, "ĠVel": 17378, "ĠPhil": 4543, "Ġrecords": 4406, "Ġsome": 617, "ĠSequence": 45835, "heartedly": 44407, "Ġpurge": 35714, "ĠConst": 4757, "Ġplentiful": 39976, "awaru": 39008, "etime": 8079, "ĠCommissioners": 48053, "ĠTVs": 31596, "ĠCharlotte": 14685, "ĠGad": 20925, "Ġwaterproof": 35158, "Ġtask": 4876, "Ġcarrots": 34397, "crow": 47114, "ĠPalestin": 6336, "Shut": 39079, "Ġdub": 10873, "Ġoffense": 6907, "Ġdurable": 20923, "Ġkosher": 43951, "Ġcasing": 39731, "iddles": 29319, "Ġdaytime": 32899, "tri": 28461, "Ġoverdose": 27357, "ĠBatman": 9827, "ĠRob": 3851, "Brown": 20644, "Ġferv": 28866, "ĠStage": 15371, "FF": 5777, "Ġlesbians": 34210, "phy": 6883, "Ġvastly": 22056, "Fl": 7414, "Ġresponsible": 4497, "Ġ199": 1594, "Ġpasswords": 21442, "Ranked": 36713, "Ġexploring": 13504, "Ġimplying": 30253, "ĕ": 209, "Ġinauguration": 23166, "ĠExper": 8170, "ĠDestination": 45657, "ĠAra": 30574, "Ġindul": 19441, "idas": 24496, "Ġ309": 40286, "Ġrav": 24343, "illi": 50173, "o": 78, "Ġgracious": 43210, "greg": 9903, "ĠDame": 20377, "ĠJudges": 42495, "Ġforcefully": 35701, "ĠBrendan": 26134, "Ġconcepts": 10838, "clips": 31945, "Ġrestroom": 40018, "Ġ94": 10048, "Ġdirect": 1277, "ĠGent": 27391, "ught": 8951, "Ġ655": 45021, "ĠCommunism": 39627, "Army": 45272, "Ġthought": 1807, "ĠJeanne": 48202, "ĠSutherland": 47793, "Ġscattered": 16830, "Ġfurnace": 42227, "Ġ229": 31064, "Ġedge": 5743, "ĠEST": 17160, "othing": 24834, "agic": 9083, "Ġoversees": 31806, "background": 25249, "ĠChecking": 39432, "sylv": 9163, "vard": 10187, "ĠGST": 31802, "ĠKund": 45099, "Ġapiece": 47563, "national": 14648, "digy": 41923, "ynthesis": 44411, ".#": 32535, "<|endoftext|>": 50256, "outh": 1536, "Ġsuperficial": 31194, "Ġabsorbing": 34418, "Ġdismissal": 25693, "arrett": 34878, "Ġfunctionally": 48410, "Ġtempo": 28691, "Ġyellow": 7872, "Â§": 16273, "Ġbrutally": 30040, "956": 50148, "ĠMelody": 38906, "Ġheed": 32420, "Ġmiserable": 22444, "monton": 19729, "Ġrevocation": 47275, "our": 454, "colm": 18414, "gging": 18792, "ĠSiem": 45196, "ĠJA": 41722, "collection": 43681, "Ġpastor": 22175, "ĠORIG": 43901, "Ġ2001": 5878, "ĠNaval": 20818, "ĠMM": 20806, "Ġrecognizing": 22650, "ĠThere": 1318, "ĠAlabama": 9266, "Ġ181": 30110, "ĠCig": 32616, "ĠArchae": 32187, "Ġhavens": 47450, "ĠRebecca": 23489, "¶æ": 35050, "393": 26007, "services": 30416, "ĠDevice": 16232, "ĠSolo": 20284, "ĠCurious": 44269, "Ġprayed": 32168, "ĠRot": 18481, "tre": 33945, "ĠImplement": 48282, "Ġbanks": 6341, "inarily": 21565, "future": 37443, "Ġ294": 41235, "Ġlaughable": 47623, "Con": 3103, "load": 2220, "hitting": 48320, "weights": 43775, "ĠProphe": 33360, "Ġmarrying": 34862, "Ġpolitely": 34313, "hu": 13415, "MIT": 36393, "Ġutilitarian": 48239, "Ġoverarching": 43247, "FILE": 25664, "ropy": 28338, "ĠHurt": 42566, "ĠMedic": 5786, "Ġsidebar": 40217, "Ġfungi": 38467, "uding": 26570, "ĠRaider": 31423, "Ġpuck": 20695, "ĠSyn": 16065, "51": 4349, "Ġupload": 9516, "ĠRemote": 21520, "Ġspend": 4341, "five": 13261, "elfare": 27122, "ĠTermin": 15527, "HF": 29567, "Ġarithmetic": 34768, "circ": 21170, "Ġprovision": 8287, "Can": 6090, "Ġcontaminated": 23543, "ĠMinutes": 23757, "ĠPalestine": 17263, "Ġ291": 43336, "Ġfragmented": 41630, "iamond": 8446, "Ġcoalition": 9906, "strip": 36311, "Ġuber": 48110, "ĠEnded": 47624, "Ġredd": 14688, "Ġgl": 1278, "%);": 49563, "ĠAction": 7561, "GET": 18851, "Dispatch": 49354, "Ġshooters": 26191, "Ġmanif": 19871, "-------": 26866, "Ġraging": 30082, "Order": 18743, "rob": 22609, "Ġecc": 21399, "ĠEnvironment": 9344, "Ġallowance": 24930, "ugs": 10339, "Ġchrom": 15358, "ĠBerm": 36967, "Ġsuggestions": 11776, "ĠReader": 25342, "Ġdiscussion": 5114, "ĠSources": 26406, "Ġfle": 5104, "Ġnickname": 21814, "Ġgro": 7128, "Ġreluct": 12869, "083": 48290, "Ġpend": 44017, "Ġsupplements": 20864, "Ġaerospace": 40439, "icter": 36278, "Ġfeaturing": 9593, "Ġchart": 8262, "Ġsounding": 22655, "ĠGree": 5251, "Chall": 41812, "Ġlogging": 18931, "rington": 24833, "Ġovers": 10753, "Ġhang": 8181, "Ġrouters": 41144, "ĠSay": 13816, "oppy": 26696, "ĠManagement": 8549, "ision": 1166, "Ġdisagreement": 25800, "Ġtranspired": 49243, "Ġvascular": 39495, "leave": 47408, "bus": 10885, "odox": 11430, "Ġaugmented": 30259, "claw": 43143, "ve": 303, "ĠRA": 17926, "Ġindebted": 37816, "ĠSultan": 37399, "Ġaccumulated": 22425, "Ġlinked": 6692, "Ġbandwidth": 19484, "ĠVW": 31388, "ĠCrime": 10003, "ĠSplash": 45275, "ĠSeek": 40749, "Ġchains": 14659, "ĠScrib": 44469, "ĠNightmare": 23951, "ß": 155, "ĠQuestions": 20396, "Haw": 33055, "itation": 3780, "Ġtablet": 14147, "om": 296, "ĠClarke": 19635, "Ð´": 43666, "Prop": 24331, "ĠBrenda": 49495, "PLE": 16437, "insured": 28409, "Fish": 39428, "Ġbottles": 14096, "Ġconsisting": 17747, "Ġbelonging": 16686, "Ġconversion": 11315, "Ġunderage": 35101, "Ġmileage": 33935, "Ġresilience": 31307, "ĠCLR": 49896, "ĠWisdom": 24075, "ĠOriental": 39713, "Ġ236": 34044, "Ġ185": 22855, "Ġless": 1342, "Ġex": 409, "ĠSit": 21131, "Ġcreditor": 45848, "ĠERA": 18802, "spective": 49540, "ĠThick": 45816, "Ġbit": 1643, "Ġspraying": 40170, "142": 23726, "Ġpregnancies": 33593, "paced": 32416, "Fel": 42493, "ĠJas": 21961, "inoa": 40564, "Ġvintage": 20276, "ĠWallet": 37249, "Ġwarn": 9828, "Ġhomosexual": 11479, "Ġmathematic": 33161, "Hundreds": 38150, "ĠPVC": 46377, "Ġgreet": 12589, "Ġplayback": 16388, "ĠOPEN": 38303, "Ġupdating": 19698, "gay": 22744, "Ġunsigned": 22165, "ieri": 29864, "ggies": 33049, "ĠGD": 27044, "Ġacknowledge": 12127, "ĠBeautiful": 23762, "ĠCogn": 26543, "ĠSeraph": 42771, "icy": 4611, "Ġdrinks": 11758, "VOL": 44558, "===": 18604, "Ġchose": 7690, "ĠPepper": 24346, "Ġfuture": 2003, "ĠDuterte": 25763, "ĠCommon": 8070, "ilers": 34393, "åĳ": 37772, "ĠModest": 42810, "ĠInstruct": 20689, "Ġfl": 781, "pos": 1930, "ics": 873, "Ġconstitutional": 9758, "Ġcontemplating": 38048, "Often": 37288, "Ġwhispered": 25029, "ĠBits": 44733, "Ġbisexual": 24249, "Politics": 43921, "Ġsections": 9004, "ĠRy": 11089, "ĠSHARES": 44806, "rano": 35823, "Ġjustifying": 46235, "Ġunderpin": 42185, "yrus": 21180, "Ġhistorian": 18026, "Ġban": 3958, "Critical": 41000, "Ġperpendicular": 47190, "Ġafterwards": 12979, "Ġfootball": 4346, "Init": 31768, "Features": 23595, "ranch": 25642, "ISTORY": 42480, "Ġcorruption": 9253, "ĠWind": 3086, "Ġoffensive": 5859, "available": 15182, "Ġtestim": 8844, "Ġwhence": 44012, "icity": 8467, "etermin": 13221, "Ġko": 41727, "Ġcondoms": 33298, "anol": 22012, "ãĤ¹": 8943, "ĠCalculator": 43597, "ĠCaucus": 31787, "ikini": 35542, "bda": 43444, "860": 45039, "camp": 16544, "Ġtubes": 21103, "Ġtape": 9154, ".).": 15729, "enges": 34120, "comment": 23893, "owe": 47097, "Ġimplicated": 28344, "ĠWant": 16168, "itsch": 48279, "Ġhypothal": 48641, "iz": 528, "697": 40035, "Ġje": 11223, "BIT": 26094, "Ġanalysis": 3781, "Ġremotely": 19863, "Ġceases": 42217, "Ġripping": 34759, "unny": 16948, "Ġcombining": 19771, "Ġsoaking": 41714, "Ġmiscarriage": 45931, "1999": 18946, "manufact": 48119, "Ġembassy": 18613, "]\"": 30866, "ĠCab": 15976, "worthiness": 48756, "Ġ332": 41423, "sighted": 44068, "ĠAgents": 28295, "Ġdeform": 47577, "ĠElite": 16158, "epad": 47852, "ĠCondition": 24295, "Ġoutp": 38701, "oos": 16426, "ĠTrailer": 36923, ",\"": 553, "Ġaudits": 41973, "Ġmainland": 22779, "Karl": 46063, "ĠLaos": 45919, "Ġcompliment": 19370, "boost": 39521, "ĠDiscord": 39462, "ĠPodcast": 16036, "omez": 30010, "ĠGain": 21686, "Term": 40596, "fml": 38122, "Ġgentleman": 22427, "ĠValid": 48951, "Ġnuance": 47128, "ong": 506, "DAY": 26442, "Ġadopted": 8197, "Ġconj": 11644, "ĠConditions": 27617, "Ġvolcanic": 31513, "Alert": 36420, "rency": 5227, "Ġdate": 3128, "Ġblended": 32063, "Angel": 33246, "ieft": 49868, "eston": 19115, "ĠCassandra": 46750, "ql": 13976, "ĠFO": 11895, "ĠIssue": 18232, "Ġbrass": 20422, "avier": 19492, "ĠCaps": 23534, "urion": 40956, "Apps": 48433, "ĠArpaio": 46861, "Ġcre": 1126, "ĠSimulator": 13942, "uder": 26651, "ĠJed": 39952, "ĠChance": 11809, "Ġundefined": 28721, "Ġsafely": 11512, "Ġsubp": 22718, "Ġencaps": 32652, "Ġpackaged": 25555, "Ġquality": 3081, "ĠScenes": 49525, "Ġgamers": 15072, "?!": 12248, "Ġunbiased": 46735, "Ġconditions": 3403, "ĠHandler": 32412, "ĠSLI": 44538, "Ġwrap": 14441, "ĠChamp": 29260, "mL": 32087, "ĠOur": 3954, "unc": 19524, "lected": 12609, "Ġmetres": 18985, "Ġmanagers": 11663, "Ġrobbers": 46988, "Girls": 41044, "ĠCelebr": 28921, "Ġscript": 4226, "Ġstandout": 35482, "Ġejac": 39426, "Full": 13295, "Ġdens": 29509, "ĠMay": 1737, "jac": 30482, "Ġverte": 30362, "Ġcoloured": 34746, "radio": 37004, "ĠMob": 16540, "380": 23734, "ĠRugby": 26244, "Tools": 33637, "worthy": 18275, "Ġneighbouring": 29272, "Ġcombat": 5249, "Publisher": 46471, "Bernie": 33433, "383": 34741, "Ġsoup": 17141, "Ġbail": 12274, "Ġconnections": 8787, "ĠComedy": 22329, "Ġ1900": 21489, "outs": 5269, "Guy": 31080, "Ġallocations": 49157, "Ġbeautiful": 4950, "Ġaccomplish": 9989, "vernment": 11355, "Ġobserves": 34526, "Ġunderstanding": 4547, "ĠAlison": 33629, "cence": 43696, "Ġphysic": 22270, "ĠStarting": 17962, "align": 31494, "omical": 22545, "ĠPATH": 46490, "Tact": 45803, "ĠStaples": 44419, "ĠTues": 48496, "ylan": 18554, "Ġpowder": 11913, "ĠExcellence": 42525, "Ġcherish": 48303, "ĠSouthampton": 30035, "Ġdemonstrates": 15687, "ĠRent": 29832, "Ġstrikes": 8956, "ĠHoo": 26859, "outube": 9762, "burse": 21780, "ĠStew": 12194, "ounter": 6828, "ĠMI": 15789, "Ġpiss": 18314, "Ġchromosome": 34348, "ĠDek": 44297, "Ġmon": 937, "legram": 30536, "},": 5512, "ĠGrade": 22653, "Rain": 31443, "Ġargues": 11673, "Ott": 49092, "803": 43564, "Ġeffectiveness": 13530, "Ġfibre": 33073, "hid": 49675, "Ġdeclined": 7392, "Ġshading": 49065, "ĠBengals": 24037, "Ġemb": 4072, "ĠNero": 46810, "ĠCanyon": 22099, "Ġpatriotic": 33453, "cm": 11215, "Ġki": 47748, "ĠHIP": 48254, "é»Ĵ": 44112, "ĠRooms": 42043, "Ġhuh": 24926, "FN": 43221, "Ġdoing": 1804, "Ġrendering": 14837, "eworthy": 25969, "Ġscrib": 44661, "Ġannoyed": 25602, "handle": 28144, "ĠMat": 6550, "Ġpresent": 1944, "ĠCritical": 17684, "png": 11134, "Ġpanic": 13619, "Ġreassure": 37762, "dule": 5950, "¿": 123, "Ġartisan": 43259, "YY": 26314, "FORMATION": 35036, "Ġreact": 6324, "Ġexplorers": 45531, "ronics": 20844, "Chance": 43606, "Ġauth": 6284, "ĠKas": 15035, "Ġbounds": 22303, "ĠPig": 23097, "stery": 41991, "Ġdelegated": 49711, "Ġcivilians": 10380, "Ġnominations": 30994, "ĠMist": 15078, "Ġ196": 28817, "ĠAdvent": 33732, "Construction": 36687, "Ġacknowled": 7333, "Ġsixteen": 27913, "ĠBrother": 8402, "Ġfloral": 38838, "Ġproposed": 5150, "Ġcoarse": 36076, "ĠOfficers": 23512, "ĠGraduate": 30930, "ĠInvention": 49110, "omach": 10806, "ĠVirtue": 39662, "ĠNanto": 47614, "Ġimmune": 10900, "ĠLegislative": 30356, "Ġtam": 21885, "Ġfoot": 2366, "ĠOutput": 25235, "ĠObst": 46378, "yout": 32015, "ĠSle": 19498, "ĠWool": 24759, "æ°": 36365, "ception": 4516, "ĠAccessories": 44171, "ĠSlim": 34199, "ĠCRA": 33416, "Ġapplication": 3586, "Ġperson": 1048, "Ġchat": 8537, "Ġimper": 11071, "Ġunt": 1418, "ĠGovern": 3948, "Ġpractition": 17629, "rahim": 26922, "nov": 37302, "Ġlegislatures": 38081, "ĠCloak": 36558, "Ġtimelines": 46881, "ĠLanguages": 42860, "Ġdiffere": 980, "sembly": 5997, "azz": 8101, "ĠMous": 42436, "Ġreven": 8934, "727": 47760, "Ġembark": 21030, "Ġaccommodations": 33839, "Ġstage": 3800, "Ġresolving": 31038, "acted": 23800, "Ġdetails": 3307, "ocese": 31292, "Ġrepe": 3172, "Ġnausea": 32122, "Ġpussy": 18185, "standing": 5646, "Ġsubscribers": 18327, "Ġaffected": 5676, "Charge": 50044, "Ø§Ø": 34247, "Ġattentive": 45660, "Reports": 37844, "reck": 11402, "Phot": 27248, "abies": 43256, "ĠChevron": 50083, "Ġcontraceptive": 37832, "utan": 37878, "Books": 30650, "Ġav": 1196, "Ġphosphate": 46926, "ĠBraz": 41414, "ĠWheels": 37416, "875": 31360, "Ġcolorful": 20239, "ĠThatcher": 31706, "amiya": 38241, "vest": 4223, "ĠCOUR": 37384, "Ġgarrison": 45416, "built": 18780, "Women": 18495, "Ġrated": 13178, "Ġenvelop": 16441, "ĠCompl": 20011, "fee": 39071, "Ġplayful": 34264, "Ġbatters": 42442, "Ġduct": 28494, "Ġfries": 31757, "Ġsmuggling": 29529, "PRE": 46437, "Ġowes": 29264, "Ġhtt": 1841, "Ġevapor": 28959, "_______": 37405, "ĠÂłÂł": 47654, "ĠPlay": 3811, "Ġlo": 2376, "ĠMcCorm": 42037, "ĠJude": 30044, "Ġanthem": 24577, "FORM": 21389, "apeshifter": 29554, "ĠYoshi": 38936, "ĠNBC": 9716, "Ġunfamiliar": 22594, "ĠJudicial": 31411, "Ġwarships": 44304, "Ġflourish": 31147, "elo": 22126, "ĠQuote": 19879, "ĠForms": 39196, "Num": 33111, "hing": 722, "Software": 25423, "ĠAPIs": 23113, "Ġunravel": 30282, "Ġscal": 16578, "Ġjud": 2553, "imum": 2847, "Ġunknow": 39472, "cancer": 48870, "ted": 1513, "Ġbusinesses": 5692, "arag": 29967, "Ã¡": 6557, "ĠProof": 29999, "ĠZoom": 40305, "Ġten": 3478, "Ġbulk": 11963, "Ġcrash": 7014, "Reporting": 42159, "Ġhyper": 8718, "Ġdef": 825, "Ġstadiums": 37924, "ĠINFORMATION": 38044, "ĠReborn": 37612, "Op": 18257, "atable": 21156, "Ġscares": 44462, "Ġmirrors": 22353, "ski": 20545, "ĠMaster": 5599, "Ġdangling": 47270, "Ġcanoe": 47434, "ĠTexas": 3936, "ĠAval": 23587, "Ġdepicts": 28539, "forming": 15464, "Tem": 12966, "057": 43526, "ĠESL": 34084, "ĠSok": 37641, "Ġcontributing": 14329, "Ġenough": 1576, "Ġtame": 37812, "ĠMana": 17493, "Ġsuccessful": 4388, "Ġpeanuts": 45612, "ĠCollector": 17573, "ĠAle": 9300, "ici": 44070, "ĠMega": 13421, "ĠDjango": 37770, "ĠDistrict": 5665, "Ġcuc": 38421, "Ġrusher": 47608, "UN": 4944, "Ġmt": 45079, "ĠVehicle": 21501, "ource": 1668, "Ġoccupational": 34266, "Ġesports": 37407, "Ġheirs": 40862, "ĠContinue": 10054, "ĠGunn": 40837, "ĠNewsletter": 35798, "Ġpadd": 14098, "pect": 806, "Ġskeletons": 25612, "Ġoutfits": 27655, "ĠTexans": 21012, "Des": 5960, "ĠGardens": 29330, "ĠunfocusedRange": 30209, "Ġparole": 25450, "existence": 41084, "Ġperfection": 20187, "ĠArch": 5579, "Ġcompr": 12084, "scene": 29734, "SY": 23060, "Ġpartial": 13027, "Ġbarrel": 9036, "quart": 36008, "Ġlengths": 20428, "Ġdiplom": 8003, "Ġrealizes": 23660, "Trump": 6170, "eria": 5142, "Ġshuttle": 20992, "Ġrpm": 37542, "inducing": 48016, "Ġseizing": 37054, "ĠSw": 2451, "ĠFig": 12138, "ĠIndeed": 9676, "Ġ1865": 47801, "Ġhikers": 47961, "Ġarranging": 41878, "ĠElementary": 25335, "Ġstarving": 34253, "might": 44092, "thought": 28895, "Ġponder": 37375, "/>": 15913, "Excellent": 45675, "ĠAry": 39477, "amaz": 45983, "ĠMushroom": 36482, "ĠKeller": 35999, "International": 24274, "Ġby": 416, "olves": 9010, "ĠImproved": 24125, "Ġbranching": 49526, "ĠNewman": 27698, "Ġfian": 41668, "aum": 26043, "dar": 27455, "ĠChau": 49628, "range": 9521, "ĠFY": 23639, "Ġideology": 12959, "4": 19, "ĠAnswer": 23998, "Ġrefuse": 11148, "Ġindulge": 36941, "ĠCrom": 39131, "ggie": 23571, "ä»": 20015, "Ġseverity": 19440, "Ġtextbooks": 31814, "facing": 29532, "ĠAngus": 41182, "Ġadvancements": 47220, "580": 39322, "Ġfeder": 28062, "Ġfails": 10143, "ellar": 14203, "ĠEzek": 45875, "ĠSN": 11346, "ĠAlam": 41514, "Ġhelped": 4193, "ĠOrleans": 12255, "ĠPor": 20139, "none": 23108, "Ġdepended": 33785, "Ġpreseason": 18913, "ĠPolo": 49341, "Ġaviation": 22548, "YING": 45761, "IC": 2149, "Ġprocedures": 9021, "Ġelectric": 5186, "ĠTraffic": 23624, "ĠRogue": 16432, "Ġcd": 22927, "ĩ": 229, "ĠDist": 4307, "Ġpair": 5166, "Ġcascade": 44847, "+": 10, "ff": 487, "ĠVide": 42551, "Davis": 36462, "Ġrefusal": 17387, "Ġalpha": 17130, "naire": 24042, "Ġfasc": 7751, "ghan": 6064, "Ġsavings": 10653, "game": 6057, "ĠPorts": 30824, "ĠNov": 5267, "ĠCompact": 37904, "Ġmolecules": 17745, "bors": 32289, "utsu": 36567, "ĠSz": 27974, "ĠReserve": 12224, "Ġrange": 2837, "ĠNASL": 49151, "ĠBermuda": 41410, "ĠGil": 10689, "Ġspl": 4328, "Ġstrat": 25369, "Ġknowingly": 26526, "Ġsmells": 25760, "endars": 44942, "âĨĳ": 48541, "ĠCertification": 40609, "THER": 21250, "Ġglaciers": 40509, "melon": 45690, "Ġdisagree": 12546, "Ġdepartments": 13346, "Ġsized": 19943, "ĠPodesta": 27375, "Þ": 154, "ĠPikachu": 38755, "Ġidols": 40207, "ĠWarrior": 14019, "ĠFinance": 15007, "product": 11167, "ĠGuy": 13145, "Exc": 40127, "ĠDis": 3167, "Ġmonog": 43173, "Ġfellows": 36627, "ĠTSA": 32453, "ĠDiablo": 31452, "Ġrevival": 26624, "Ġinspector": 24110, "ase": 589, "315": 27936, "Ġwander": 27776, "ĠArchangel": 28811, "ĠOrlando": 13117, "ĠNorman": 19636, "Cong": 18649, "star": 7364, "Ġexams": 26420, "dump": 39455, "Ġdams": 40907, "ĠPione": 27507, "Ġturns": 4962, "ĠGut": 27549, "ĠSoftware": 10442, "ĠAside": 28470, "Ġgadgets": 35281, "ĠHaas": 50090, "Person": 15439, "Ġflagship": 21336, "arling": 30045, "ĠWhite": 2635, "Ġshun": 32814, "Ġundergrad": 43485, "disabled": 47730, "Ġgrowth": 3349, "Ġ378": 45473, "Ġhybrid": 14554, "SUP": 40331, "Ġrhythms": 39804, "onut": 16478, "erella": 36648, "Ġpainting": 12036, "Ġ1929": 31883, "Ġmitigation": 33585, "Ġreleased": 2716, "Ġgag": 32261, "Grad": 42731, "ĠAppears": 31254, "gb": 22296, "Ġobs": 10201, "enser": 45268, "Ġcows": 22575, "Ġconstitutionally": 40800, "Ġusefulness": 37496, "ĠMagic": 6139, "ĠLightning": 12469, "Ġspecialize": 39868, "ĠParameters": 40117, "dependent": 21186, "ĠStun": 43516, "owler": 30014, "Ġconceived": 21581, "atti": 34891, "Ġbehaviour": 9172, "here": 1456, "options": 25811, "Ġanatomy": 33449, "Ġ152": 24848, "ĠIstanbul": 25299, "Ġpitched": 21730, "Members": 25341, "ority": 29134, "Ġeconomists": 16816, "ĠPigs": 49210, "destroy": 41659, "endum": 43755, "ĠPumpkin": 36724, "cheat": 46799, "Ġresettlement": 45948, "ceptor": 49492, "Ġveget": 7494, "457": 33032, "osexual": 8542, "ĠVladimir": 14840, "Ġchests": 34572, "Token": 30642, "ĠLily": 20037, "ĠWitches": 44910, "ĠSundays": 32714, "ĠGri": 20914, "luence": 23079, "ĠPetroleum": 39970, "ĠRevelation": 33722, "apy": 12826, "ĠPhilly": 30029, "Ġharder": 7069, "useum": 6744, "Ġfiscal": 9068, "ĠNewfoundland": 43867, "ĠBlu": 12391, "Ġdilig": 20645, "CLUD": 39149, "Ġprivate": 2839, "Ġdecent": 7709, "gars": 25821, "ĠPeninsula": 24078, "ãĤ§": 24806, "Ġbats": 19553, "jen": 48796, "Ġtutorial": 11808, "Ġescaped": 13537, "ĠSuffolk": 45034, "?),": 33924, "ĠHop": 9996, "amel": 17983, "ĠApostles": 43331, "Ġtool": 2891, "Ġconfirmation": 12641, "ĠTamil": 32519, "Ġmaneu": 16136, "Ġfixture": 29220, "pered": 13653, "Ġmanufacturers": 11372, "ĠQueens": 14045, "Ġlax": 36919, "ĠMyers": 25434, "Chicago": 25705, "sett": 17744, "Ġforg": 5784, "Ġweep": 49671, "Ġhumiliating": 37743, "ĠAce": 17102, "Ġnineteenth": 29666, "fet": 34045, "Ġarmoured": 44138, "Ġdysph": 50111, "Ġpeppers": 31804, "ĠStraw": 27279, "ĠAshes": 34143, "cf": 12993, "Ġproced": 5131, "show": 12860, "ĠRegion": 17718, "Ask": 25214, "Ġlingering": 28528, "Ġsocialist": 15889, "bourne": 12544, "ĠEDITION": 39219, "ĠTy": 7039, "Touch": 35211, "anding": 27225, "Ġdisks": 32505, "Image": 5159, "ĠIdlib": 33254, "Ġattention": 3241, "recogn": 26243, "Ģ": 222, "lif": 36195, "agame": 46746, "LECT": 16779, "517": 48170, "eg": 1533, "running": 20270, "Ġkickoff": 40532, "Ġrespective": 11756, "ĠHistorically": 48153, "Ġcipher": 38012, "Ġscore": 4776, "ĠPokemon": 14878, "ĠPyth": 48657, "Ġspawned": 29013, "iov": 16664, "Ġscenarios": 13858, "Ġteeth": 9941, "Ġconsultations": 42052, "Ġtalented": 12356, "tur": 36590, "ĠPuerto": 15295, "Ġloads": 15989, "ĠPs": 33610, "Ġworkouts": 27197, "Ġharmed": 28517, "Ġvind": 29178, "ĠHind": 17099, "Ġstrange": 6283, "@#&": 48193, "ĠWh": 854, "Ġerroneous": 35366, "Ġmend": 47618, "Ġvector": 15879, "Ġsuperiority": 26883, "Ġbanana": 25996, "Ġsession": 6246, "ĠForum": 14867, "pper": 2848, "Ġcondolences": 38671, "2016": 5304, "delay": 40850, "Friday": 20610, "Ġconfidentiality": 32554, "Ġsacked": 32564, "ĠSIM": 23749, "Ġplaus": 48923, "ãĥĹ": 30965, "Ġinactive": 28621, "uph": 25689, "protection": 42846, "Bir": 50091, "few": 32146, "Ġyear": 614, "Ġnumb": 35519, "ĠCob": 14828, "ĠReference": 20984, "Ġgroceries": 38464, "isec": 27866, "Ben": 11696, "ĠSau": 23167, "data": 7890, "NFL": 32078, "ĠMattis": 36107, "ĠRole": 20934, "Ġfrowned": 32198, "Ġprotocol": 8435, "Ġrequirement": 9079, "Ġ231": 34598, "Ġhumming": 41465, "Ġflourished": 45671, "Bank": 28650, "Ġlarge": 1588, "ĠHernandez": 24687, "424": 40090, "rows": 8516, "ĠWhites": 29290, "ĠCompatibility": 46021, "Ġsulph": 45558, "257": 28676, "weapon": 28741, "Ġallege": 33831, "Ġrigid": 20831, "Ġap": 2471, "ĠTab": 16904, "Ġlif": 3868, "ĠWeber": 28137, "Ġalign": 10548, "Ġsweets": 42402, "ĠPsychological": 30583, "rene": 25924, "Sat": 20245, "cience": 4234, "ĠSlovenia": 37562, "nels": 19423, "Ġbuyers": 14456, "597": 43239, "Ġgirl": 2576, "Ġfuturistic": 36701, "ĠTEXT": 40383, "Ġtrance": 43618, "Little": 22253, "Ġcru": 4630, "Battery": 47006, "ĠAzerbaijan": 33605, "Ġoccult": 31587, "alted": 29590, "ĠEng": 1985, "atical": 39056, "ĠTale": 17388, "FH": 44602, "Ġgif": 9381, "ĠReson": 44783, "Ġhouse": 2156, "tty": 42852, "ĠSaf": 6895, "iva": 12151, "ĠNapoleon": 28283, "irl": 1901, "ĠBerman": 43859, "RPG": 46954, "pathy": 16786, "Ġprovince": 8473, "rather": 34330, "SAM": 49302, "Ġproving": 17742, "ag": 363, "raised": 49309, "Ġtags": 15940, "ĠBlazing": 30331, "ĠFault": 40050, "MAT": 41636, "ĠMassacre": 40602, "ĠFront": 8880, "Ġba": 26605, "Ġstains": 43329, "ĠDup": 37916, "ĠFISA": 44073, "A": 32, "Ġdues": 40789, "Ġsystematically": 25735, "optional": 25968, "138": 20107, "appings": 39242, "ĠManitoba": 28293, "Ġcoincidence": 21083, "ĠWTO": 47074, "Farm": 48412, "NG": 10503, "ISC": 37719, "enegger": 44028, "ĠRou": 13876, "ĠHomes": 34698, "Around": 24472, "ĠSwitch": 14645, "ract": 974, "ĠStaten": 46034, "Ġplan": 1410, "10": 940, "Ġintervention": 9572, "ummies": 39578, "ĠZeit": 47447, "ĠAscension": 41416, "Ġdiscont": 16141, "Ġgeneralized": 38284, "ess": 408, "Ġwasted": 18359, "ener": 877, "Ġvaluable": 8119, "utz": 27839, "inator": 20900, "Ġbeet": 25679, "Ġthrow": 3714, "Ġvoice": 3809, "Ġurban": 7876, "ĠRussians": 13234, "amental": 6860, "ĠFit": 25048, "ĠTrop": 25491, "Ġnavigation": 16408, "Ġfanc": 39980, "aba": 15498, "heit": 29361, "ĠBreach": 46148, "Ġcoordinated": 22080, "Ġwed": 29445, "Ġavoidance": 29184, "&": 5, "Ġim": 545, "ĠAlexis": 31078, "162": 25061, "vironment": 2468, "Ġgastrointestinal": 40887, "ãĤŃ": 25084, "arat": 34174, "root": 15763, "making": 8601, "Ġ=====": 29335, "ĠFlake": 39727, "Elect": 19453, "Ġsame": 976, "Ġimmediately": 3393, "Ġtyrann": 44315, "ĠNAV": 47140, "ĠJanuary": 3269, "Ġimpair": 17253, "Ġantid": 41744, "ĠDisability": 46454, "Ġdirectories": 29196, "Max": 11518, "-'": 19355, "abled": 4510, "Ġpandemonium": 41274, "ĠBaseType": 31783, "Ġdangerously": 33247, "Ġinscription": 40189, "Ġdatabase": 6831, "ä¹": 20046, "362": 35667, "Ġhaz": 11595, "lvl": 47147, "--------------------------------------------------------": 43801, "Mu": 33239, "Ġvacated": 46346, "!": 0, "Ġcharism": 25348, "Ġdomestically": 42127, "496": 37747, "ĠSquid": 48799, "LG": 41257, "ĠOprah": 47857, "Ġcontempt": 18035, "Ġunpredictable": 22900, "ĠFate": 20341, "Ġcookie": 19751, "Ã¦": 21241, "ĠScorpion": 48821, "Ġwors": 24476, "Ġtwenties": 44471, "ĠPriority": 34416, "ĠCreation": 21582, "Ġenzyme": 27679, "ĠKaren": 18678, "Ġunus": 7242, "Ġdefy": 37462, "ĠMcGill": 40595, "Ġcharity": 11016, "Vill": 42074, "FINE": 29940, "Ġrevital": 32951, "Ġsearching": 10342, "atories": 19854, "Ġserves": 9179, "ĠLAPD": 44776, "806": 37988, "ĠWildlife": 18006, "Ġteaching": 7743, "Ġchambers": 23204, "Score": 26595, "color": 8043, "ructure": 5620, "Ġsab": 17463, "Ġrevolution": 5854, "755": 38172, "Ġbursting": 37493, "FBI": 39379, "Ġmost": 749, "Ġcomma": 39650, "295": 25710, "Ġdil": 11844, "Ġlions": 31420, "Ġdeepening": 46539, "fare": 9496, "Ġmonitor": 5671, "Americans": 17636, "ancial": 2783, "Ġcontroversial": 8381, "Ðµ": 16843, "Ġclout": 45789, "Ġarts": 10848, "Ġausp": 45062, "ĠWorkshop": 26701, "Ġclot": 5148, "Ġtremendous": 12465, "ĠHeroes": 9896, "Ġlocation": 4067, "ĠAly": 47535, "ĠMDMA": 34883, "Redditor": 34832, "Ġrecre": 11027, "ĠAin": 31899, "ocobo": 37642, "ĠZah": 49063, "Ġreviewers": 30702, "ãĤ®": 43899, "ĠÏ": 18074, "ĠPetition": 43723, "Ant": 13217, "ĠLegends": 14270, "Ġmystic": 37311, "Ġhotline": 46989, "Dream": 30571, "Ġfiled": 5717, "ĠLab": 3498, "ĠHarm": 17925, "ĠSuppose": 39200, "Ġlayoffs": 41965, "406": 29703, "aunts": 43981, "uminum": 13074, "Ġalongside": 7848, "ĠHeather": 24253, "This": 1212, "otropic": 46084, "although": 16670, "Ġcareers": 16179, "zeb": 38130, "Ġindist": 37665, "Ġdoub": 3385, "biased": 38002, "ĠDecker": 47170, "tek": 35424, "nesia": 31401, "att": 1078, "191": 26492, "lys": 27385, "imony": 33969, "Ġhoused": 23707, "Ġgrenades": 28850, "male": 22606, "Ġorc": 26393, "ulu": 15712, "ĠStrat": 29186, "Ġmemoir": 24649, "643": 41813, "haven": 39487, "102": 15377, "ĠNeil": 15929, "81": 6659, "Ġcounteract": 47578, "inus": 35237, "Ġprev": 8654, "planet": 47427, "ĠCLI": 43749, "308": 21495, "ital": 1287, "Ġtry": 1949, "call": 13345, "Meet": 29318, "ĠAvenue": 8878, "Ġtooth": 16162, "501": 33548, "yards": 33750, "URE": 11335, "actory": 9548, "ĠMacintosh": 48087, "ĠMIT": 17168, "þ": 186, "Ġfrench": 48718, "aga": 8126, "Ġundet": 40615, "Ġprofile": 7034, "ĠDarth": 31152, "ĠHyde": 30785, "Ġbasically": 6209, "Supp": 15979, "Ġreflection": 14580, "ĠQual": 9537, "ĠTRUMP": 42953, "Ġoverhe": 34789, "Children": 26829, "Ġnationality": 29835, "ĠGreenland": 30155, "Ġ168": 23378, "otom": 43125, "Ġhabit": 7947, "Ġinterrog": 15054, "ĠRPC": 39400, "Ġ530": 40585, "Ġhemp": 28246, "Ġwarr": 32207, "Making": 23874, "Ġoverheard": 48255, "ĠMorton": 35766, "ĠBurst": 30635, "Ġscorp": 47394, "557": 41948, "Ġboard": 3096, "Ġtesters": 42891, "Ġrape": 7262, "ĠSubstance": 50021, "pton": 10972, "phrase": 34675, "Ġredund": 22916, "Ġcentrist": 47609, "awan": 43004, "Ġparticulars": 45596, "ĠCortex": 44420, "ĠMathemat": 30535, "Ġesteem": 42213, "ĠXen": 21173, "ĠMX": 26135, "Ġbad": 2089, "ĠListen": 20600, "prop": 22930, "umbles": 25329, "ĠSof": 41427, "pose": 3455, "ĠYoung": 6960, "Ġstatically": 47746, "ĠEric": 7651, "Ġspiritual": 8557, "Ġdepartures": 50050, "Ġappropriate": 5035, "ĠLazarus": 49093, "Ġworrying": 18916, "hesive": 25938, "Ġscientific": 5654, "Ġatheists": 28473, "VERTIS": 18000, "omb": 2381, "racist": 41131, "Ġpoppy": 47867, "CU": 43633, "Ġinsepar": 50140, "apon": 9184, "ĠCopyright": 15069, "ĠJohn": 1757, "Rh": 38576, "Ġh": 289, "umen": 20080, "FL": 3697, "lication": 10142, "Ġurges": 28804, "pot": 13059, "licensed": 36612, "ĠÃī": 43052, "Ġreplication": 30330, "Ġopioid": 23039, "oulder": 17601, "ĠKul": 50024, "Ġinvestment": 4896, "Ġintelligence": 4430, "ĠCulture": 17346, "dal": 31748, "ĠWikileaks": 35828, "Ġãģ": 23294, "ĠApocalypse": 21308, "Ġdiscovering": 21611, "Ġseasons": 7028, "Ġunity": 14111, "Ġsubversive": 49685, "Ġcap": 1451, "Ġfeather": 17972, "ĠFX": 19534, "Ġquer": 42517, "Ġelic": 25487, "323": 32637, "Ġlumber": 34840, "Ġmigrating": 45879, "Romney": 42184, "Ġdissolution": 37494, "ĠProvided": 29750, "Ġ610": 44300, "Ġdru": 37215, "Ġtoolbar": 50149, "Ġtheat": 23776, "Ġprisoners": 10577, "Ġconnects": 20417, "Fri": 30214, "Ġcorridors": 32807, "ĠShiv": 43305, "chieve": 24957, "Ġfathers": 17150, "Ġneglig": 16776, "Ġ)))": 47282, "Ġlocally": 15726, "backer": 49978, "Ġaug": 16339, "Ġproletarian": 47393, "ĠGrain": 48692, "ĠBooth": 36389, "={": 34758, "Lim": 19352, "ĠImmortal": 32888, "ĠFore": 4558, "Ġvanishing": 49047, "Ġsusp": 4012, "mAh": 28142, "ĠLibraries": 46267, "SL": 8634, "Ġsavage": 27303, "ĠOlympia": 45760, "Ġtechnician": 33024, "Ġdisobedience": 42366, "ĠCl": 1012, "ĠDel": 4216, "Ġreceptions": 35401, "ĠZhao": 29436, "Buzz": 48230, "Mem": 13579, "Ġdeficit": 11807, "Ġpassionate": 15347, "Ġblacklist": 38810, "amation": 14755, "Ġinitiatives": 15446, "ikh": 13848, "Lost": 31042, "Ġmood": 10038, "Ġsingled": 31958, "ĠCalvin": 25017, "ATIONS": 18421, "Ġassorted": 46603, "Ġobjective": 9432, "Ġtransistor": 49176, "Ġabbrevi": 37640, "Ġinnumerable": 45383, "Ġphysician": 14325, "ĠWake": 20441, "ference": 4288, "ĠVictorian": 24569, "ĠCursed": 29492, "ĠClapper": 44834, "Ġabandoning": 31309, "ifled": 47157, "administ": 39081, "ĠReverse": 31849, "ĠShadow": 8843, "iddler": 26458, "ĠCarlo": 40089, "Ġextent": 6287, "arsity": 45826, "Ġsan": 5336, "Ġrib": 12183, "Polit": 39866, "Ġsweet": 6029, "Ġdogma": 40937, "ĠReb": 15652, "Ġtantal": 46937, "Ġdestruct": 15256, "ĠUps": 35949, "Ġreverence": 40380, "erv": 712, "Notes": 16130, "ĠNobel": 20715, "601": 41706, "raught": 44451, "ĠChem": 12870, "ALT": 31429, "Winged": 47418, "Ġahead": 4058, "opia": 24464, "Ġtransformations": 38226, "umph": 12875, "ĠCere": 26532, "Ġmanufacturing": 9138, "Ġassass": 10519, "Ġask": 1265, "ĠKung": 44753, "near": 40093, "ĠSuccess": 16282, "591": 48952, "ymm": 26621, "Ġcancelled": 16769, "Ġprec": 3718, "Brew": 44029, "ĠGeForce": 12975, "ĠMas": 11066, "ĠWonders": 47497, "Ġborrow": 8804, "ĠKN": 22466, "Ġprotein": 7532, "Ġcargo": 15892, "Ġtransmitter": 35099, "ĠMush": 24257, "Ġreturning": 8024, "Ġsterling": 46499, "Ġpoured": 19036, "Congress": 25916, "Ġpays": 13831, "Ġdashed": 37901, "Ġlikewise": 20467, "Ġhorrend": 39910, "Ġphys": 2281, "Ġdere": 49408, "Ġdemanding": 11334, "Ġinfluencing": 32596, "Ġnatives": 30962, "ĠStras": 47561, "Ġenvy": 31651, "Ġaudi": 40504, "Ġheadlined": 46958, "ĠTurns": 30875, "Ġintake": 10337, "Sport": 42576, "ĠDeep": 10766, "Ġscan": 9367, "Ġhyster": 24258, "Ġsuprem": 14889, "Ġworker": 8383, "ppy": 14097, "omp": 3361, "Ġbarbar": 24837, "Ġhobbies": 45578, "Ġschool": 1524, "Website": 33420, "Information": 21918, "Ġinterpreter": 28846, "Ġlicensed": 11971, "Ġ00": 3571, "VERS": 28884, "RD": 35257, "Ġrelaxation": 34205, "eryl": 44886, "ĠÂ§Â§": 47171, "ĠFaction": 41552, "ĠSick": 32181, "Ġequity": 13598, "äº": 12859, "Ġusher": 36642, "ĠUnless": 17486, "Ġoriginal": 2656, "ASED": 42827, "ĠMann": 20291, "MK": 33907, "Israel": 14040, "ĠSELECT": 33493, "ĠPerth": 29913, "ogie": 37987, "Boo": 46120, "Ġpercentile": 37894, "ĠVeil": 46104, "Ġhad": 550, "ĠPhi": 47256, "Ġrift": 36788, "Ġstructure": 4645, "azines": 15742, "stro": 20661, "Ġwifi": 43121, "Ġsmaller": 4833, "Ġmultitude": 24124, "ĠMek": 42859, "Ġtra": 1291, "direction": 37295, "dist": 17080, "Ġprofessionalism": 42554, "Ġburden": 10538, "Ġfra": 5306, "ĠGorsuch": 38465, "ĠCanon": 19507, "Ġsnapped": 20821, "score": 26675, "afi": 19910, "Ġbeneficiary": 33867, "Poly": 34220, "ĠTask": 15941, "Color": 10258, "Ġparody": 29695, "rem": 2787, "Ġanim": 2355, "Ġskyrocket": 41483, "Ġrushing": 15795, "edged": 48916, "Ġerosion": 29337, "ĠSpaces": 48086, "abel": 9608, "Ġrul": 2155, "Ġresidency": 27308, "Ġquarter": 3860, "Between": 25262, "Ġcardinal": 38691, "Ġfailings": 46622, "Ġchick": 17943, "ĠNotwithstanding": 43970, "zman": 32054, "atered": 34190, "Ġbl": 698, "TR": 5446, "Ġreplacement": 9014, "ĠFranks": 50099, "ĠGrad": 17701, "assault": 46635, "ĠAwoken": 8755, "PIN": 44032, "natureconservancy": 41380, "ĠMormons": 33003, "ĠFrancisco": 6033, "Ġcontributors": 20420, "Ġfools": 37323, "ĠExtended": 24204, "ĠGenius": 32562, "Ġexponent": 28622, "ĠVari": 15965, "Ġrailways": 45247, "ĠWeiss": 16152, "BOOK": 39453, "activ": 15791, "Michigan": 40610, "Ġanalogous": 34657, "agonist": 15239, "Entity": 32398, "ĠFeatures": 17571, "514": 47396, "Built": 39582, "ukemia": 43505, "shop": 24643, "ĠLT": 34146, "Ġwre": 30154, "Ġconsideration": 9110, "alys": 26266, "Atlanta": 43482, "ĠDisk": 31664, "ĠTarget": 12744, "Ġriff": 36738, "ĠBaker": 14372, "ĠSor": 15423, "Ġoperational": 13919, "eat": 4098, "Ĭ±": 46788, "lycer": 38577, "Ġhideous": 42269, "Ġda": 12379, "common": 11321, "Ġthat": 326, "Ġwit": 20868, "negie": 32360, "ynchronous": 31301, "ĠHIT": 46405, "Ġpelvic": 43510, "Ġprow": 25055, "Ġsl": 1017, "flies": 27959, "Cop": 13379, "Ġworkings": 35084, "ĠKarachi": 46154, "eled": 18449, "ĠSalary": 46860, "ĠArrest": 35080, "identally": 23961, "Ġmighty": 18680, "Ġdecree": 25931, "AT": 1404, "Ġrocket": 10701, "ĠDocker": 25716, "Ġ1915": 32062, "Advertisement": 4723, "ĠJacqu": 44726, "ĠTu": 16749, "416": 35218, "ĠNE": 10635, "0001": 18005, "Ġchronological": 45946, "ĠCustom": 8562, "ĠETF": 31112, "avanaugh": 19872, "ĠSob": 36884, "ĠFn": 37481, "Ġpins": 20567, "heart": 11499, "Ġcandidates": 5871, "ĠDavis": 7802, "Ġdistracting": 36441, "Ġincome": 3739, "ĠV": 569, "Ġstorms": 20228, "Ġfielder": 49743, "-------------": 32501, "Ġyouths": 28247, "Palestinian": 35969, "Ġturnover": 25079, ".''": 13531, "Ġinterchangeable": 43615, "Ġple": 3339, "fun": 12543, "378": 30695, "ĠSteelers": 21323, "757": 39251, "ETA": 20892, "ĠMats": 30107, "Ġtraveling": 11300, "Ġearned": 7366, "Ġxml": 35555, "ĠMontreal": 12871, "Ġengages": 32902, "ĠCrimson": 18722, "Ġteachings": 19564, "ĠConserv": 7162, "ĠJama": 21661, "Ġdispersed": 34646, "ĠNebula": 46915, "Ġmemorable": 18078, "Ġsocioeconomic": 34406, "Paper": 42950, "å½": 37605, "ĠSMS": 29287, "ĠBout": 40808, "ĠParad": 14853, "ĠAqu": 11446, "ossier": 30087, "Ġpleased": 10607, "Ġcelebration": 14395, "Inter": 9492, "Ġarriving": 14820, "Ġstray": 28583, "ivity": 3458, "Ġcaught": 4978, "ksh": 50133, "alo": 7335, "ĠEconomic": 11279, "browser": 40259, "Ġdisplacement": 29358, "Ġ1830": 45440, "tops": 35011, "minute": 11374, "Ġconcession": 33130, "nc": 10782, "Ġcapacity": 5339, "ĠTurnbull": 26445, "ĠDoctor": 9356, "Ġmeant": 4001, "275": 23195, "Ġscaven": 35998, "Ġowned": 6898, "na": 2616, "Ġgol": 43791, "Ġtotally": 6635, "'>": 44167, "Two": 7571, "01": 486, "ĠHey": 14690, "ĠNa": 11013, "Ġprofessors": 20339, "Ġmassage": 26900, "ĠMeans": 28453, "ĠDaily": 6714, "burn": 10899, "Ġire": 35918, "source": 10459, "ti": 20259, "imgur": 19791, "ĠIdle": 37130, "Ġnum": 997, "ariat": 21621, "Ġembarrassing": 18997, "ĠKS": 34172, "Ġrandomized": 23925, "Ġinvincible": 46038, "zza": 34443, "ĠMes": 14937, "Ġrestoration": 19414, "G": 38, "HCR": 43230, "Adv": 22856, "Ġ820": 48964, "ĠMagical": 22294, "emin": 14857, "Ġsend": 3758, "immigrant": 39835, "mail": 4529, "z": 89, "Ġempt": 23909, "ĠGone": 26893, "anmar": 21708, "Ġfeminists": 22742, "espie": 42120, "Ġreim": 21123, "Ġlibrary": 5888, "Ġshoulders": 12450, "Ġsweats": 39387, "Ġconverting": 23202, "Ġcorners": 14371, "Ġallergies": 36665, "ĠWhere": 6350, "context": 22866, "Ġmuddy": 39085, "ĠART": 24278, "Ġexacerb": 22907, "Ġassuming": 13148, "Material": 17518, "ĠMemorial": 14861, "Ġdosage": 35997, "IP": 4061, "Ġinsulation": 32806, "Ġtabs": 22524, "Ġcrystal": 15121, "semb": 4428, "797": 44673, "Ġoutsider": 30545, "Ġcarry": 3283, "arij": 39010, "Ġhunters": 21490, "Ġsket": 28427, "obyl": 46666, "Ġâľĵ": 24762, "ĠSudan": 19610, "Ġhysteria": 38893, "aur": 2899, "plugins": 37390, "Ġ343": 37290, "sex": 8044, "width": 10394, "Ġ1952": 26352, "ĠAlicia": 39607, "ĠYs": 43740, "Struct": 44909, "eating": 30041, "Ġbeta": 12159, "Ġreiterate": 49852, "å¥³": 42637, "Ġtv": 31557, "RS": 6998, "Db": 43832, "Ġcollected": 7723, "598": 41292, "benef": 36934, "Ġgroin": 42247, "ĠÂ½": 25208, "Ġbreaching": 46837, "ĠAssange": 21882, "Ġpsychedelic": 34490, "ĠTed": 11396, "Ġemptiness": 49333, "ĝ": 217, "Ġconfidently": 37891, "Ġglove": 29144, "Ġhive": 35881, "Ġinterf": 9556, "athering": 25545, "Ġinstitute": 24224, "ct": 310, "Driver": 32103, "Ġmate": 16133, "Ġcentralized": 29024, "Discuss": 48873, "Ġkale": 43497, "Ġnoodles": 31103, "Ġcensorship": 21185, "Ġunloaded": 49975, "Ġconceptions": 49849, "ampoo": 40239, "Ġtestimonies": 49904, "EF": 25425, "Ġincon": 15861, "Ġbiologists": 43149, "Ġcustom": 2183, "ĠUEFA": 40858, "avy": 2830, "Ġexpenditures": 22895, "Hispanic": 43830, "ĠVolvo": 46950, "Ġdepartment": 5011, "ĠCertainly": 23631, "âķ": 22880, "Ġlacks": 16523, "ĠCorporation": 10501, "Ġgenus": 34306, "ĠWonderful": 40128, "Arizona": 40732, "ĠFriendly": 38683, "Version": 14815, "Ġdefences": 46942, "pard": 26037, "ĠENG": 36924, "Ġwhit": 20542, "origin": 47103, "Ġcord": 15050, "ĠFaust": 47411, "Ġservings": 43096, "ĠItalian": 8200, "ĠHarris": 10026, "Ġ1981": 14745, "ville": 4244, "roth": 33640, "speak": 47350, "kefeller": 31424, "Ġcard": 2657, "Ġscratch": 12692, "ned": 2817, "ĠHealing": 22508, "Ġheels": 18728, "Ġnicer": 36597, "ĠAr": 943, "aryl": 36822, "erm": 7780, "ongevity": 25454, "priority": 49336, "uum": 13814, "Ġliberating": 48291, "Ġdisturbed": 24069, "ĠHera": 23480, "Ġcarrying": 6872, "Ġnond": 30745, "Ġburglary": 33724, "Ġreadiness": 30618, "otal": 4997, "ĠPistol": 36414, "Ġappendix": 43600, "Ġmidway": 37720, "Trust": 33814, "Ġvet": 20202, "Ġtroublesome": 35778, "Ġgenuinely": 17170, "Ġpipes": 19860, "ĠAssuming": 33238, "ocket": 5459, "Ġrepairing": 39005, "Ġgle": 26852, "ĠRising": 17658, "Ġefficacy": 20179, "ĠFollowing": 14207, "Reb": 28951, "Ġinfographic": 48033, "Ġdon": 836, "ĠExploration": 36806, "compl": 23855, "DIV": 33569, "ĠMahm": 31556, "ĠRecover": 49107, "Ġmigrate": 32492, "ĠÃ¾": 40265, "Ġresponsibilities": 15171, "Ġ02": 7816, "ĠHeidi": 45518, "ĠBEN": 44849, "Ġconstructing": 30580, "iological": 15071, "ĠChester": 26943, "ãĥĳ": 32546, "gam": 28483, "ĠElon": 32451, "ĠItems": 17230, "Ġdisse": 22806, "Ġgraphic": 13028, "ĠWATCHED": 30134, "ĠSmoke": 25416, "iverpool": 10864, "ĠErica": 45187, "ĠGrant": 12181, "Ġtown": 3240, "ĠGrants": 40535, "Ġstrateg": 5352, "Ġrazor": 26811, "tta": 25854, "med": 1150, "odi": 23130, "Ġshaved": 39273, "ĠCobra": 44305, "Ġorphans": 50213, "Ġderive": 27099, "ĠChill": 38290, "ĠContinued": 22168, "ĠCore": 7231, "ĠBristol": 25040, "Ġarchaeologists": 38967, "Ġ1946": 22717, "ĠClubs": 48901, "ĠSherman": 23198, "Gay": 41787, "Ġcostume": 16569, "ĠSatoshi": 40824, "ipped": 3949, "Ġnutrition": 16633, "Ġ1944": 16994, "Bat": 24541, "ĠCable": 20249, "Ġ??": 19153, "olt": 5978, "ether": 6750, "ĠSpeedway": 46000, "enemy": 46970, "Ġmountain": 8598, "Ġprogressed": 28775, "Ġrevise": 32548, "upt": 37623, "Ġcaptures": 23007, "ĠBlack": 2619, "ĠBreat": 40285, "Ġcunning": 34218, "Ġrebellious": 43860, "Ġdeemed": 10762, "Ġconscientious": 47963, ").[": 42669, "Ġalliances": 29614, "Ġassail": 29886, "stage": 14247, "Ġmarketplace": 17432, "Ġpokemon": 43962, "Ġpledges": 31241, "achelor": 19335, "wn": 675, "transform": 35636, "Bell": 36488, "documented": 47045, "âĸĳ": 22110, "ioxid": 26294, "ĠSHAR": 39225, "Ġmanually": 14500, "uri": 9900, "ĠArchitects": 44610, "ĠBuildings": 49308, "ĠRSS": 25012, "Ġstrap": 23016, "iets": 27955, "cfg": 37581, "Ġvisible": 7424, "ĠCoal": 12896, "Ġpreschool": 38725, "soft": 4215, "raid": 7086, "Ġdoorstep": 41594, "ĠâĢĵ": 784, "bound": 7784, "Ġissued": 4884, "Ġchop": 30506, "runs": 48381, "Ġown": 898, "dos": 37427, "Ġheap": 24575, "Ġdeadlines": 36773, "Ġ\\(": 16792, "ĠGas": 14345, "cko": 37549, "IDES": 42538, "ĠMesh": 47529, "Ġcaul": 46087, "orest": 26522, "condition": 31448, "99": 2079, "Ġenemies": 5775, "ĠCell": 12440, "vid": 16921, "Ġwig": 45678, "ĠKill": 12265, "Ġwildly": 20278, "ruct": 1356, "funding": 25032, "032": 49959, "sites": 49315, "pod": 33320, "bps": 18799, "um": 388, "Ġ1977": 15589, "agger": 7928, "Ġregional": 7915, "Ġprescribed": 14798, "ĠBolt": 21764, "ĠPeg": 31084, "ĠRamirez": 34783, "general": 24622, "Ġ37": 5214, "Ġadvising": 30341, "Legal": 38263, "Ġlanded": 11406, "Ġplayer": 2137, "Ġneedy": 37278, "140": 15187, "Ġ301": 25643, "Ġlawmakers": 10191, "ĠCommunity": 8108, "iron": 1934, "Ġwrapping": 27074, "Ġantidepress": 27293, "Ġprobabilities": 39522, "Ġballs": 11333, "ĠJapanese": 4960, "ĠDrawn": 50061, "m": 76, "Ġenjoy": 2883, "ĠGle": 25680, "abama": 8809, "ĠOmn": 31816, "Ġillust": 6406, "Ġignorance": 17010, "ĠZed": 46159, "Ġparadise": 31354, "Ġpermission": 7170, "ĠJing": 42279, "Ġcyan": 36818, "Tes": 36504, "========": 2559, "Ġpriests": 17345, "ĠDON": 23917, "Ġagainst": 1028, "Ġdomestic": 5928, "Ġabnorm": 42364, "MW": 14326, "bol": 28984, "Newsletter": 33031, "ĠChairman": 12787, "Ġsymbols": 14354, "Ġopera": 27296, "Ġclarity": 16287, "Ġparamount": 37352, "Ġannually": 13844, "ocusing": 45743, "Ġjail": 7356, "ĠElectricity": 42048, "reon": 21833, "Ġreun": 15398, "Ġbanquet": 47600, "ĠSprint": 23178, "Ġsimultaneous": 29526, "Ġouter": 12076, "Ġaft": 46088, "ĠSonic": 18426, "ĠHarriet": 48805, "Ġwhipping": 44637, "046": 45438, "ardless": 14694, "Ġparties": 4671, "Fighting": 46375, "loe": 24617, "ĠEmily": 17608, "ĠSphere": 31798, "rylic": 34554, "ĠCourt": 3078, "Ġmural": 36192, "Ġassign": 8333, "ISIS": 29322, "ĠRAM": 13931, "Wood": 22911, "TG": 35990, "ĠMÃ©": 43579, "Jac": 28821, "chemical": 31379, "igel": 47709, "Ġpresence": 4931, "Ġreceptor": 17408, "ĠKy": 11118, "Ġcreates": 8075, "ĠBlake": 13307, "Ġmetabolites": 49574, "ĠPatriots": 13104, "Ġfictitious": 46718, "Soviet": 40408, "Ġpraying": 26002, "157": 18458, "ãĥķãĤ¡": 41939, "Ġgrade": 9559, "kies": 43724, "ĠFemale": 15396, "Ġcontinual": 37639, "Ġaccurately": 14351, "Ġrese": 1599, "Ġsettlements": 18573, "Ġsucked": 25669, "Ġwoman": 2415, "Ġbears": 13062, "ĠPrimordial": 44174, "jan": 13881, "ø": 180, "980": 40022, "ALD": 44071, "hawk": 40624, "sy": 1837, "ĠInterview": 19371, "Ġframework": 9355, "ĠFEMA": 43575, "Ġsupreme": 17700, "angering": 49470, "amate": 36754, "Id": 7390, "pkg": 35339, "Ġf": 277, "Ġwhereby": 23482, "ĠHist": 5590, "inner": 5083, "ĠAlternatively": 25929, "dylib": 31739, "Ġsettling": 25446, "Ġprivilege": 11941, "Ġlull": 42858, "Ġ1972": 16101, "Ġnegatively": 22533, "uctions": 20847, "onday": 3204, "Ġdischarge": 17655, "sa": 11400, "resso": 33852, "ĠMSNBC": 22128, "WA": 15543, "Ġdataset": 27039, "Ġ(\"": 5855, "onents": 3906, "STR": 18601, "Ġdamn": 12270, "Ġrelics": 40970, "Ġlegs": 7405, "Ġattachments": 32161, "camera": 25695, "Ġscrut": 12054, "Ġshelters": 23629, "Ġideals": 22247, "Ġexamine": 10716, "ECTION": 24565, "Ġcessation": 35120, "ĠTre": 4700, "ĠTibetan": 31877, "Ġdefence": 9366, "opian": 37548, "Ġelected": 7018, "dding": 33403, "Ġcopyrighted": 33696, "Ġslammed": 21376, "omore": 22113, "Ġregrett": 31649, "ĠKenn": 7158, "Ġhaw": 23185, "Ġstation": 4429, "Unknown": 20035, "Ġ//[": 31161, "itous": 22109, "gob": 44270, "306": 20548, "Ġbudgetary": 47560, "Ġtrusts": 31976, "-(": 30420, "ĠNeuro": 13782, "Ġoverlooked": 21655, "Ġironically": 32532, "ĠChall": 10772, "archives": 48814, "George": 20191, "aq": 30188, "Ġcongregation": 28862, "Ġ106": 15696, "ĠSax": 29242, "Ġpsychiat": 19820, "Ġamid": 10371, "ĠJer": 4230, "Ġstudied": 9713, "ĠBulgar": 26163, "Ġpillar": 30042, "Ġroller": 24471, "ĠMent": 31879, "ĠDD": 20084, "ĠHayward": 41960, "Ġexited": 34710, "Ġending": 7464, "WARNING": 31502, "onyms": 43612, "quire": 29782, "Ġgaps": 17332, "ĠRuntime": 43160, "ĠREG": 23337, "Ġobj": 26181, "Ġ1975": 15231, "Ġdemonstrating": 21135, "Ġmaid": 25920, "ĠFTP": 45854, "Board": 29828, "posal": 40007, "Britain": 37114, "Ġsunset": 26428, "Ġheavy": 4334, "Journal": 25296, "Ġeducator": 45562, "ĠSlip": 49988, "Ġthem": 606, "Ġannoying": 15774, "ĠMcKenzie": 44311, "reatment": 21731, "~~~~~~~~~~~~~~~~": 27156, "Jer": 36134, "ĠUNCLASSIFIED": 46222, "Ġdelinquent": 46026, "ĠHouth": 34271, "half": 13959, "worn": 34565, "Subject": 19776, "ĠWriter": 26606, "Ġinhibits": 49543, "Ġ'": 705, "Ġeverything": 2279, "ueller": 16466, "Ġgate": 8946, "Ġaluminum": 15955, "ists": 1023, "cy": 948, "inse": 38521, "Ġsomeone": 2130, "Ġnationalist": 19848, "ĠREPL": 45285, "agog": 37300, "fetched": 50012, "ĠShanahan": 48906, "ĠSilver": 7698, "inv": 16340, "ĠBru": 8274, "Ġspectator": 43893, "pen": 3617, "iang": 15483, "Ġcanon": 18061, "ĠTheresa": 20251, "vez": 33425, "Blu": 38676, "Ġimbalance": 32556, "Adds": 46245, "Ġdeficiency": 23580, "uses": 2664, "ĠPresident": 1992, "Ġcheckpoint": 26954, "rel": 2411, "Ġbinge": 34735, "ĠTire": 45942, "ĠGest": 44641, "ĠAlready": 27511, "country": 19315, "Send": 25206, "ĠGaw": 30187, "Ġbrokers": 36139, "ĠBecker": 40765, "ĠWhen": 1649, "thanks": 27547, "Ġmono": 33361, "Ġgenital": 24678, "APH": 31300, "Ġlawyers": 9326, "ĠLowry": 44024, "TEXTURE": 47648, "Ġdetract": 31041, "ĠCapt": 6790, "ĠScholarship": 38178, "Ġnuclear": 4523, "ê": 166, "ĠGears": 46680, "Mill": 22603, "Ġbureaucrats": 34025, "Dick": 38743, "ĠRush": 13063, "ĠSly": 31615, "ĠSmithsonian": 40131, "Ġounces": 24405, "Ġas": 355, "combe": 49325, "ĠStrategy": 20561, "ĠUSDA": 29986, "Ġapplauded": 38911, "ĠNash": 13950, "ĠIntent": 39168, "Ġnewsp": 6043, "651": 40639, "social": 14557, "sweet": 34751, "Ġpictures": 5986, "Ġcures": 50019, "mg": 11296, "Ġbegg": 44887, "LOD": 38543, "ĠPete": 17542, "Ġ79": 9225, "Ġnicely": 16576, "ĠZhu": 33144, "Ġscapego": 42374, "TY": 9936, "azeera": 28535, "ĠCities": 20830, "OCK": 11290, "Ġcondemns": 49758, "roying": 38295, "Ġstresses": 29787, "Ġtraders": 21703, "ĠHockey": 17277, "Ġlamented": 40176, "ĠHalf": 13139, "uously": 24987, "ĠBosnia": 34292, "pering": 21255, "Ġboredom": 43515, "ĠBring": 24347, "ĠHalifax": 34438, "Ġhamm": 25755, "La": 14772, "vor": 20867, "served": 45852, "Ġselects": 40573, "Ġillustrated": 18542, "Ġ''": 10148, "ĠDOT": 42743, "Ġsnaps": 23429, "Ġ(!": 22759, "Ġrundown": 45602, "Ġcloses": 20612, "ĠDecember": 3426, "VER": 5959, "Ĳ": 238, "Amb": 35649, "ĠStanding": 22493, "ĠMercy": 30759, "Ġ429": 42313, "Ġvolunteer": 13904, "ĠMecca": 35247, "Ġtakeover": 27011, "459": 33459, "Ġgroove": 35096, "Talk": 25685, "to": 1462, "Ġtooltip": 49472, "fif": 32041, "Ġdoping": 42631, "Ġnegotiations": 9825, "Ġmascara": 48430, "Ġ357": 45210, "ĠYemeni": 38534, "hidden": 30342, "aii": 42648, "holding": 19216, "addock": 35509, "ĠAires": 44692, "ismo": 44126, "ĠOss": 45397, "Flickr": 47250, "ĠTMZ": 46800, "ĠChamber": 15840, "company": 39722, "hene": 29473, "129": 18741, "Ġalters": 40866, "ĊÂł": 44320, "Ġswat": 44284, "ĠGuides": 48770, "Ġmaj": 16486, "Ġelectors": 39259, "Ġgrabbing": 23256, "2": 17, "ilts": 50076, "Ġ1890": 31982, "Ġliterature": 9285, "ĠWeather": 15615, "ilant": 37794, "aida": 30546, "ãĥĭ": 30165, "Ġverify": 11767, "Ġrescued": 19868, "Ġwaters": 10150, "ste": 4169, "Ġoriginals": 47324, "Ġzinc": 31861, "quality": 13237, "lb": 23160, "ĠTCP": 23633, "ali": 7344, "ĠPB": 30524, "Ġknife": 9845, "Ġmath": 10688, "algia": 47111, "eware": 29725, "gments": 11726, "ĠGiul": 35267, "Ġ197": 29903, "Ġdrafting": 26931, "blown": 31290, "ĠTherefore": 8447, "ĠJar": 15374, "urg": 3686, "Ġle": 443, "Ġdisproportionately": 28719, "serv": 3168, "ĠInfinity": 22385, "ĠTick": 46093, "Tier": 35252, "aspberry": 17653, "marine": 42380, "ĠNish": 48438, "ashington": 2542, "ĠVerify": 49899, "920": 37128, "Hong": 48559, "Ġbothered": 20466, "ily": 813, "STEM": 25361, "Ġgamb": 45756, "kers": 15949, "Ġrestraining": 35078, "Ġjammed": 45479, "ĠBAL": 48091, "Ġmassac": 34622, "Ġsurfaced": 23786, "Ġlaughed": 13818, "off": 2364, "Seriously": 42338, "Ġcoff": 19540, "iltration": 36055, "Ġpercept": 34953, "Ġbind": 11007, "ĠCynthia": 40897, "Ġcompiling": 33393, "Ġjudged": 19589, "ĠLiam": 31684, "ĠReviews": 20871, "Ã£": 26102, "ute": 1133, "Alright": 31442, "Ġdefunct": 49119, "à¹": 31479, "Ġpolymorph": 34196, "Ġillustration": 20936, "Ġdownloaded": 15680, "ĠOaks": 44781, "Ġneuro": 7669, "Ġfarmers": 9818, "Ġeligible": 8867, "kun": 28374, "Ġnoun": 23227, "ĠController": 22741, "probably": 26949, "ĠKB": 14204, "ĠDebate": 41029, "Ġdebuted": 26376, "tering": 20212, "RGB": 36982, "Ġmat": 2603, "¬": 105, "Ġlimbo": 46008, "ĠMarine": 11000, "ample": 1403, "AST": 11262, "Ġminiature": 28685, "ĠGulf": 12108, "Ġtrembling": 39228, "ĠRobbins": 44117, "ĠâĪ": 18872, "aterial": 2273, "arily": 3093, "ĠWelfare": 32404, "iri": 14783, "Steel": 39807, "Those": 9627, "Ġfeel": 1254, "Ġune": 17809, "Ġhospital": 4436, "Ġnonsense": 18149, "Ġjab": 33896, "Ġpeer": 12720, "ĠMaw": 46598, "Ġloc": 1179, "ex": 1069, "Ġprivatization": 41110, "Ġreimb": 46496, "Ġsparse": 29877, "follow": 27780, "wagon": 41127, "IF": 5064, "Ġcriticize": 24628, "Ġgod": 5770, "ĠZak": 32605, "Ġpermissible": 32005, "Ġapparatus": 21152, "Ġtestified": 15463, "Ġblueprint": 30881, "Ġpir": 12276, "Ġnep": 25919, "Ġwrite": 3551, "Ġlocker": 17355, "EXP": 49864, "ĠAbilities": 31447, "ADS": 47149, "orter": 4337, "Usually": 37887, "Ġrollout": 38180, "assador": 10623, "Ġbroadly": 18633, "Ġstairs": 16046, "Ġcontroversies": 36512, "Ġnurturing": 47416, "Ġunderstand": 1833, "ĠPerez": 23058, "Ġbuffalo": 45019, "Try": 23433, "Ġ363": 49327, "Cand": 41572, "Consider": 19626, "egal": 39839, "erion": 28019, "ĠTrue": 6407, "Visit": 31141, "Ingredients": 41222, "ĠExhibition": 48064, "ĠMH": 20752, "military": 33631, "Ġcolumns": 15180, "Ġ();": 13979, "Ġ338": 40736, "ocity": 11683, "Ġformulations": 49971, "ĠPreviously": 29875, "Ġwears": 17326, "ĠCult": 22449, "ĠUnle": 36471, "Ġvanquished": 49171, "Ġspores": 47306, "Ġshipment": 28652, "Ġpity": 26246, "Ġwhispering": 48508, "Ġwalk": 2513, "ĠDACA": 38061, "ĠTake": 7214, "Ġtables": 8893, "ĠLOT": 30314, "ickets": 15970, "Configuration": 38149, "Ġpornographic": 47642, "Ġattached": 7223, "ĠPrelude": 46897, "ĠQuant": 16972, "Ġwelf": 9468, "Ġworkshops": 25982, "Ġ314": 34085, "ĠWein": 40966, "Ġpleading": 30279, "ĠOECD": 33802, "Compare": 41488, "Ġclerics": 47964, "igan": 5516, "ĠLCD": 23598, "ĠRelief": 30323, "London": 23421, "efer": 41027, "Ġharms": 34859, "Ġteaches": 17324, "ĠABV": 49993, "ranked": 28282, "Ġcombination": 6087, "ĠCalif": 3192, "Ġphenomenon": 10733, "Ġpeace": 4167, "ATHER": 45226, "Ġilluminated": 35162, "ĠPrem": 6929, "105": 13348, "Canadian": 28203, "Ġimpulses": 37505, "SourceFile": 37226, "ci": 979, "ĠÂŃ": 22020, "Ġdeliberately": 14593, "ricting": 42870, "Ġphrase": 9546, "Ġze": 41271, "http": 4023, "Ġpregnant": 10423, "Ġeuros": 21138, "Ġpocket": 10000, "ĠTill": 17888, "Ġlanding": 9581, "Or": 5574, "Ġblah": 33367, "Ġobjectives": 15221, "Ġequals": 21767, "Ġadjunct": 44737, "uh": 7456, "Ġ389": 49633, "ĠZoro": 42840, "ĠPlane": 36829, "Ġgiveaways": 50020, "ĠMUS": 39484, "ĠUnlike": 12101, "RG": 48192, "Ġvaguely": 29627, "emption": 11221, "Ġdebut": 8886, "ĠLay": 18881, "Ġfunc": 25439, "Philadelphia": 42349, "Ġsocks": 24359, "ĠMcAuliffe": 48044, "Ġspilling": 45085, "194": 22913, "lins": 21602, "Ġdemons": 17708, "announced": 43499, "Ġpolicemen": 33777, "ĠAssociation": 5396, "ĠRC": 13987, "Carl": 26886, "Figure": 11337, "wood": 3822, "higher": 46503, "Ġ104": 14436, "Jam": 30380, "Ġsoaked": 33657, "Ġdiscredited": 41882, "bon": 4189, "Ġcalibration": 36537, "ĠRewards": 27964, "ĠBaz": 47099, "Ġindis": 49919, "flow": 11125, "MRI": 40952, "first": 11085, "League": 24623, "Ġsweep": 16085, "Ġprepared": 5597, "Ġfragmentation": 42965, "ĠFour": 6675, "ĠKar": 9375, "OULD": 24010, "ĠApollo": 17508, "Ġfrail": 41890, "ÃŃs": 41200, "Ġcensus": 21649, "Ġundecided": 39511, "Ġconsensus": 11529, "President": 10364, "wl": 40989, "PN": 13137, "asper": 32981, "Ġuncontrolled": 47913, "DEC": 41374, "Hi": 17250, "ĠThroughout": 24581, "amping": 37843, "thereum": 17733, "Ġbystanders": 46652, "Ġramifications": 36093, "cture": 48715, "acist": 20279, "sectional": 44330, "ĠAllan": 31908, "Ol": 30098, "Ġfinancial": 3176, "uge": 2217, "Ġcoaching": 13101, "Ġcess": 30173, "ĠAzure": 22134, "âĶģ": 47486, "iq": 25011, "ĠDeals": 38299, "Ġdiamond": 15291, "Ġdissemination": 44832, "ĠCultural": 23897, "ĠSpielberg": 41151, "Ġ189": 27230, "ĠThird": 10467, "ĠCategories": 45486, "Hur": 42633, "ĠAtlantis": 34779, "Ġsnatch": 43388, "ĠAoE": 39703, "etic": 5139, "ĠDetective": 20220, "426": 42780, "ometry": 15748, "Ġacquainted": 36620, "Ġdossier": 34602, "comfort": 21598, "ultz": 22150, "match": 15699, "Ġmig": 37011, "Requirements": 42249, "ĠEN": 12964, "Arcade": 43763, "Ġcentered": 19254, "Ġoffenses": 18514, "ried": 2228, "Ġpotatoes": 18821, "Ġdeclare": 13627, "Ġreading": 3555, "iability": 12455, "Ġplays": 5341, "ĠBelfast": 29713, "licks": 49191, "Ġstolen": 9909, "Ġoverse": 9125, "ĠPatel": 33110, "establish": 40037, "CB": 23199, "Ġcommanding": 25771, "cook": 27916, "ĠFB": 13186, "tein": 22006, "Ġvisual": 5874, "Ġshake": 13279, "Ġreplace": 6330, "Ġenhancement": 28554, "iry": 9045, "Ty": 25492, "mac": 20285, "command": 21812, "groupon": 14531, "Ġdinosaurs": 27199, "Ġreactionary": 35578, "Ġreps": 20982, "ĠBronze": 19461, "Ġplayoff": 13119, "ĠChattanooga": 45851, "ĠElements": 26632, "ĠBorough": 48114, "Ir": 23820, "ove": 659, "Ġkeep": 1394, "enko": 32720, "ãĥĢ": 27852, "Ġsenses": 17627, "ĠCollider": 50253, "Ġstagn": 23196, "Ġstruggles": 12766, "Specific": 32419, "ĠHung": 12149, "Ġequilibrium": 29163, "Ġstructures": 8573, "Ġcombined": 5929, "rared": 25122, "NVIDIA": 38021, "ĠStarr": 37884, "EXT": 13918, "Ġshops": 12437, "Ġopp": 1269, "Major": 24206, "Ġreinforce": 19594, "ĠExile": 37273, "pletion": 24547, "ĠSiberia": 41515, "ĠTNT": 42490, "Ġfleeting": 42738, "Add": 4550, "ĠSY": 19704, "Ġ366": 44856, "Ġhint": 9254, "ĠAkron": 45868, "Ġstellar": 25041, "Ġarrow": 15452, "Ġsurface": 4417, "ĠShannon": 28108, "friends": 36154, "iour": 49439, "Ġeverybody": 7288, "ĠCandy": 24680, "redible": 26260, "ĠJump": 15903, "eva": 48855, "Ġgives": 3607, "450": 17885, "ĠHein": 26431, "Ġpuzzle": 15027, "ami": 6277, "ĠRez": 47753, "ĠMagnum": 48019, "idental": 35182, "ĠResidents": 29602, "Ġarticle": 2708, "ĠLith": 19730, "ĠTJ": 41852, "Ġprepares": 25978, "odied": 32255, "ĠShape": 25959, "aca": 22260, "itch": 2007, "Ġbrew": 9059, "}\"": 36786, "ĠTE": 13368, "ucc": 18863, "ym": 4948, "iding": 2530, "Ġbabys": 46711, "Ġcomplement": 16829, "ĠNew": 968, "Change": 19400, "ĠPryor": 45350, "2500": 44688, "Ġreferen": 16041, "Ġadvocate": 12811, "Ġresultant": 43440, "ĠIndependent": 13362, "ĠConn": 20776, "ĠKeynes": 33531, "ru": 622, "ĠHavana": 40274, "aturday": 3658, "ennett": 48151, "ĠAX": 43051, "ĠPop": 8099, "Ġunable": 5906, "Ġrepud": 42405, "Th": 817, "input": 15414, "Ġ137": 21643, "ĠArizona": 7943, "Ġreward": 6721, "Ġaerial": 17789, "Uber": 39018, "Ġwishes": 12802, "rey": 4364, "BC": 2749, "ĠDenver": 10656, "density": 43337, "Ġdefaults": 26235, "balanced": 27753, "alogue": 30326, "anchester": 8911, "Ġapproves": 43770, "arian": 3699, "ĠLah": 30693, "ĠKemp": 44198, "Ġfooting": 32687, "ĠLINK": 34426, "Ġlosing": 6078, "Ġextremists": 20674, "Ġprized": 37768, "linger": 33550, "ĠSoviet": 7570, "Ġeas": 1396, "Ġdestined": 23985, "ĠGast": 31486, "ĠBrooke": 46459, "Ġenlist": 33858, "ĠMonster": 12635, "Download": 10002, "Ġfacts": 6419, "enna": 13713, "Controller": 22130, "ĠHew": 30446, "inf": 10745, "Body": 25842, "particip": 48013, "ĠCruise": 29147, "formance": 10367, "ĠOK": 7477, "ĠDiseases": 39988, "ĠDuncan": 18625, "ĠNT": 24563, "SIM": 48913, "HP": 14082, "Ġacquisitions": 33683, "Ġeconomics": 12446, "ĠLimits": 44943, "orian": 22618, "Ġveter": 5785, "ĠACLU": 24381, "Ġemissions": 8971, "Ġinstantaneous": 47707, "Forest": 34605, "Ġshudder": 50130, "Ġplant": 4618, "Ġpersons": 6506, "ĠCrest": 40072, "until": 28446, "Ġfe": 730, "Charges": 36970, "Changing": 48333, "aters": 8605, "Co": 7222, "ĠiPad": 13133, "ĠSeptember": 2693, "ĠAll": 1439, "hus": 7537, "then": 8524, "Gil": 40747, "ouch": 7673, "gnu": 41791, "ĠHear": 26319, "ĠXML": 23735, "ĠRip": 29496, "Ġblast": 11975, "hart": 18647, "Ġknocks": 36539, "Ġvotes": 5690, "ĠUniform": 35712, "Ġinvisible": 14836, "CV": 33538, "ĠHornets": 38602, "Counter": 31694, "ulously": 18117, "ĠKaplan": 37105, "Ġadvances": 14901, "ĠSPECIAL": 38846, "Earlier": 13689, "Ġcarving": 39510, "Ġ278": 39174, "ĠFire": 3764, "ĠPesh": 39654, "Ġnode": 10139, "fax": 23560, "WN": 29767, "Ġtraveler": 40168, "ĠBrick": 28347, "Ġsubtly": 37847, "Ġfocusing": 10759, "ĠHiggins": 39043, "Ġcompat": 8330, "shoot": 30408, "Ġshoved": 35137, "ĠLug": 31541, "Ġcourts": 8028, "ĠNavigation": 42115, "ĠExc": 25268, "ppard": 43988, "Ġheadquartered": 48583, "Ġgrains": 21824, "orders": 6361, "ĠHamburg": 32526, "Repl": 39232, "Ġ1880": 34865, "eer": 28153, "ĠMarco": 16556, "Ġretail": 6308, "Damage": 22022, "ĠPlat": 32715, "rist": 1585, "Ġ||": 8614, "Ġdemise": 25403, "ĠDanielle": 39808, "Ġawake": 21693, "ĠColeman": 22687, "ront": 4298, "ĠCyborg": 46114, "Ġquartz": 47969, "Ġreprint": 26589, "Ġbehavi": 6598, "Ġtsun": 28798, "Ġadaptation": 16711, "ĠMatt": 4705, "Ġyields": 19299, "Ġsandbox": 35204, "Ser": 7089, "Ġreminiscent": 24960, "Ġtimers": 48085, "Ġmobility": 15873, "Ġbetween": 1022, "izophren": 18337, "Ġguarantee": 9149, "ĠLanka": 28143, "Ġmomentarily": 40957, "Ġuniform": 8187, "Ġsaddened": 40434, "Ġcharities": 23980, "ĠMae": 34673, "Ġwhine": 47409, "Ġmultic": 47368, "Sil": 15086, "Ġbehavioral": 17211, "ĠLaf": 31528, "ĠIndividual": 18629, "oult": 25955, "Ġoscill": 24969, "Ġfilib": 33853, "010": 20943, "Ġantagonists": 50178, "adier": 38868, "Ġfloats": 36016, "ĠMinneapolis": 20455, "ĠSeed": 23262, "Ġinterval": 16654, "Ġcolony": 18815, "Ġinjust": 19019, "enstein": 37975, "Ġsensing": 34244, "ĠVegas": 9621, "Ġpencil": 21613, "ns": 5907, "Ġbaffled": 44432, "Ġaccuse": 24456, "ĠPik": 26025, "OVER": 41983, "Ġzone": 6516, "ĠðŁĻĤ": 32485, "Ġunacceptable": 18010, "Sequ": 44015, "episode": 38668, "Ġincredible": 8082, "ĠRap": 12281, "Magikarp": 41538, "gren": 32762, "ĠAnyway": 21836, "Ġsecular": 14589, "irus": 19397, "Ġlb": 18360, "482": 40149, "aked": 4335, "ĠSauce": 37618, "Ġpace": 8761, "Ġboundaries": 13215, "ĠCCP": 37963, "Ġhaha": 42254, "Ġstrategist": 25651, "ĠUz": 40919, "Ġplanner": 42351, "Suddenly": 38582, "Ġaspir": 18808, "Ġluck": 8458, "Ì": 136, "Ġre": 302, "ĠCatholicism": 46802, "Ġcrashes": 17616, "Ġdiscontin": 19936, "Ġuptake": 35340, "ĠWhedon": 49891, "Ġoverrun": 33713, "counter": 24588, "ĠPeople": 4380, "pause": 32125, "Ġdiet": 5496, "Ġpedest": 14238, "RN": 42336, "ĠLes": 11732, "Ġsparkling": 39072, "ĠNab": 36099, "ataka": 48088, "ickson": 46381, "ĠVAT": 32313, "un": 403, "Ġsenseless": 41439, "Ġresponsiveness": 49815, "Ġunique": 3748, "Ġeternity": 28989, "ĠTactical": 26984, "274": 28857, "Pure": 49548, "Ġhaze": 42772, "lling": 2680, "ĠChallenges": 44495, "eu": 12496, "rac": 11510, "Ġwaiter": 46612, "ĠOblivion": 34181, "uese": 20506, "Ġequivalent": 7548, "Hide": 38518, "ĠBir": 12817, "James": 14731, "adal": 31682, "Ġvehemently": 42327, "Lean": 35806, "ĠAbandon": 41105, "ĠPalestinians": 12890, "Ġmixing": 17090, "Ġprejudices": 39800, "reb": 34806, "Ġcounselling": 47586, "Ġstyles": 12186, "ĠMusic": 7849, "Spot": 32565, "ĠKiss": 20350, "Ġbicy": 12561, "ĠEag": 9789, "ĠSund": 3309, "ĠUniv": 40429, "Ġextensions": 18366, "ĠRon": 6575, "connection": 38659, "ĠTyrann": 38401, "ĠPanic": 34478, "Ġeverlasting": 45697, "thus": 26239, "ĠWITH": 13315, "Ġtrajectory": 22942, "umar": 44844, "Ġevacuated": 23724, "ampires": 27933, "meet": 47745, "ĠDolphins": 21668, "ĠBaldwin": 26402, "ĠPad": 15744, "Ġbir": 35122, "åı": 20998, "Ġ17": 1596, "Ġplaster": 46376, "Ġaddressed": 9469, "Ġattorneys": 14449, "ĠSicily": 49301, "Ġwomb": 31514, "ĠS": 311, "clusively": 44307, "Ġgradual": 24972, "ĠVirt": 11285, "Ġengraved": 41136, "ig": 328, "Ġthanked": 26280, "ĠGPA": 45283, "urate": 15537, "impro": 32077, "ĠSetFontSize": 39446, "Ġparaly": 26901, "ilies": 3922, "Ġelicit": 44055, "outer": 39605, "ĠVIS": 50035, "ĠReflect": 36901, "Ġdevast": 9884, "Ġsermon": 39362, "Ġterrorist": 7417, "sudo": 24032, "ursday": 3479, "Ġgul": 47161, "Ġchased": 26172, "ĠSection": 7275, "ĠSiege": 30207, "Links": 31815, "ĠDollar": 29747, "aaaa": 24794, "Isn": 41451, "ĠObesity": 41936, "jah": 31558, "012": 30206, "atural": 2660, "Music": 22648, "Ġubiqu": 23861, "Ġmorning": 3329, "slaught": 30929, "itching": 19811, "au": 559, "Ġentrepreneur": 19500, "Ġsincerely": 29093, "ĠHR": 15172, "Pink": 41912, "322": 37283, "Ġintrusive": 39930, "Ġrailing": 47590, "Ġwitchcraft": 48646, "ĠCalifornia": 3442, "ĠOlder": 35527, "Ġincidentally": 42258, "Sweet": 36087, "digit": 27003, "Ġlearning": 4673, "ĠRAD": 33540, "though": 2016, "ĠSail": 27783, "Ġwidespread": 10095, "beam": 40045, "ĠThornton": 37519, "Ġfixes": 13040, "ĠIdentity": 27207, "Ġrebels": 12669, "Ġpissed": 28674, "Ġsalaries": 17058, "ĠFirearms": 32389, "Ġsacrificed": 27445, "Ġconfidential": 15279, "Ġprol": 13286, "nerg": 25649, "Ġtaller": 25242, "arrass": 9187, "ĠEclipse": 30991, "Ġbusiest": 42745, "American": 7437, "Adapter": 47307, "asons": 2812, "ĠTs": 13146, "document": 22897, "Ġrevisit": 32302, "Ġabbre": 28873, "Ġpatient": 5827, "Ġ[(": 47527, "nik": 17187, "Ġheavens": 27636, "Ġdivor": 21781, "_(": 41052, "Ġdisproportionate": 30982, "Ġencoding": 21004, "Ġadvertisement": 15422, "=/": 33223, "ĠMothers": 49673, "Ġlogic": 9156, "hood": 2894, "ĠTelecommunications": 48667, "Ġrs": 44608, "ĠSearch": 11140, "Ġathlete": 16076, "Ġepile": 29790, "Sort": 42758, "rox": 13907, "ĠDough": 48179, "Ġcavalry": 30891, "ĠVed": 36101, "Ġlandmark": 20533, "Ġlasted": 15436, "packages": 43789, "Ġconcerts": 28565, "OF": 19238, "127": 16799, "ĠRohingya": 34016, "Ġcapitalists": 32663, "Ġadmitting": 22688, "Ġinvestments": 11115, "Ġassaults": 21832, "version": 9641, "ĠNate": 23486, "Ġunlucky": 39411, "Learn": 20238, "ĠRunes": 48737, "Ġurgently": 37788, "Ġ................": 44713, "Ġdistortion": 25100, "allowed": 40845, "iation": 3920, "Ġsuffering": 7195, "ĠWAY": 34882, "ĠAH": 28159, "thur": 11098, "critical": 34666, "Ġgaining": 13977, "Ġrespected": 14462, "xes": 48169, "Ġwindow": 4324, "Ġdiverse": 10084, "ĠDARK": 46455, "Ġcommunal": 26757, "Ġcitiz": 3523, "ĠAMA": 38268, "Rew": 30003, "Ġshar": 13986, "Ġmushroom": 28520, "Ġobjection": 19630, "Ġdummy": 31548, "ĠPHP": 19599, "Ġdemoral": 49077, "Ġliquidity": 31061, "ĠDrac": 35693, "Ġconvened": 39828, "Ġredundancy": 49052, "ĠEffect": 7896, "Ġnight": 1755, "ĠMUCH": 45859, "ĠHumans": 27411, "fashion": 25265, "Others": 25599, "aken": 1685, "Ġscanning": 21976, "Ġunsupported": 24222, "Ġsheer": 15163, "ĠFallon": 36503, "bek": 47083, "ĠTome": 46403, "Ġpioneer": 29570, "OOOO": 23803, "Ġdripping": 37472, "Ġtiss": 8815, "STAR": 46678, "çĶŁ": 37955, "itivity": 11365, "Ġelse": 2073, "262": 29119, "ĠSolid": 15831, "Ġmetropolitan": 27953, "ĠTyler": 14886, "aucuses": 38271, "ĠPresbyterian": 44150, "ĠsrfAttach": 43065, "Ġrelat": 48993, "ĠUnreal": 42536, "Ni": 34153, "Ġsmokers": 24109, "eral": 1691, "ĠPokÃ©": 9169, "Ġintuition": 31563, "Ġpipe": 12656, "Ġtextures": 20028, "du": 646, "ĠSing": 5573, "Ġmeal": 9799, "requisite": 27614, "ĠIMAGES": 45325, "Meg": 42672, "utable": 18187, "Ġsatisf": 5244, "adeon": 12424, "Ġpatron": 19686, "ĠAMD": 10324, "Ġsuggestion": 13052, "Sales": 44490, "olitical": 13781, "isions": 3279, "Ġferment": 38797, "ĠTOD": 16926, "Ġuser": 2836, "VIEW": 28206, "ĠDenmark": 16490, "ĠUri": 46688, "avi": 15820, "ĠArgentina": 16519, "Ġcreative": 7325, "ity": 414, "Sony": 32895, "join": 22179, "Ġdistilled": 41009, "PG": 6968, "Ġascending": 41988, "Ġtheatrical": 32010, "çĶ°": 35572, "Ġthrew": 9617, "Ġneglected": 24007, "Ġhijacked": 41554, "ĠDiamond": 13566, "Ġinequality": 12791, "dm": 36020, "ammers": 36846, "Players": 24860, "ĠINF": 45594, "ibilities": 7992, "Ġprofessions": 34423, "Ġembodies": 45370, "ĠGREAT": 37853, "iol": 1669, "Ġ,\"": 42911, "olph": 10196, "ĠAndrea": 23174, "Today": 8888, "ĠDuc": 24165, "atern": 9205, "Ġprotecting": 10192, "Ġrecession": 16457, "ĠColorado": 7492, "ĠScotia": 32586, "ĠWarhammer": 26715, "Ġbleak": 30942, "Ġmanipulative": 47859, "ĠGalileo": 45860, "ĠSpy": 23688, "birth": 24280, "ĠParables": 49409, "ĠEnemy": 21785, "ĠMorris": 14433, "mn": 10295, "ĠEmma": 18966, "Ġengines": 11874, "ĠWednesday": 3583, "etc": 14784, "Ġ$(": 29568, "ĠSL": 12419, "ĠGhost": 9897, "Ġfont": 10369, "Ġkins": 45338, "rx": 40914, "iblical": 16897, "Ġlinemen": 41683, "Ġpa": 14187, ".[": 3693, "Ġboosting": 27611, "imon": 20473, "Ġguests": 10650, "ĠSteven": 8239, "ĠGiov": 36089, "great": 18223, "rine": 7640, "uper": 48568, "Ġfewer": 7380, "inas": 24252, "ricane": 11551, "ocyte": 43320, "ĠPalm": 18358, "eco": 47704, "Ġtrack": 2610, "Ġportals": 42604, "ĠXuan": 37746, "ĠHazel": 42805, "partial": 47172, "Met": 9171, "adic": 23876, "Ġ1932": 32471, "Ġdrawbacks": 42763, "Ġuncertainty": 13479, "ssl": 45163, "MU": 42422, "UI": 10080, "politics": 34127, "ĠRavens": 20091, "Ġ+---": 40703, "Safety": 45372, "Ġsensibilities": 50222, "Ġstripe": 39858, "ĠStorm": 8865, "Ġoptimistic": 16915, "PM": 5868, "ĠCompanies": 24382, "Ġseasoning": 46794, "Ġraged": 49000, "ĠPOS": 28069, "Ġdefund": 47613, "brid": 10236, "608": 28688, "lang": 17204, "ution": 1009, "GROUP": 46846, "Ġrecorder": 38156, "(),": 22784, "Ġdiminishing": 35197, "ĠAbraham": 16660, "ĠChristians": 9316, "îĢ": 29773, "ĠTempest": 34367, "Ġpopulous": 44042, "othe": 20388, "ifications": 6637, "ĠAirl": 16016, "istan": 4103, "IFIC": 30643, "toc": 40301, "ĠWhich": 9022, "ĠTrog": 35791, "Ġpresets": 46613, "ĠTea": 15777, "Ġinternship": 42329, "Office": 27743, "ĠRangers": 13804, "Ġtrails": 19196, "Ġvehement": 36284, "okin": 36749, "Ġtf": 48700, "Ġdisguise": 27487, "Ġfant": 5113, "USS": 32835, "Ġgamble": 32385, "Ġasking": 4737, "ĠReyes": 40599, "ĠBakr": 47121, "ĠProbably": 18578, "ĠLocation": 13397, "Ġbru": 18145, "arn": 1501, "Ġform": 1296, "Ġmathematician": 48251, "meier": 49468, "retch": 22592, "Ġskin": 4168, "Ġplural": 22801, "Ġacademia": 34326, "`.": 44646, "ĠRollins": 47489, "Ġsubscriber": 32944, "ĠDecl": 16691, "Ġmanslaughter": 35083, "iating": 26336, "ĠTai": 11144, "Ġpartnerships": 22867, "Ġmete": 47091, "ONSORED": 36406, "uy": 4669, "ĠBates": 35591, "ĠOrganizations": 41846, "Ġelegant": 19992, "ĠSingapore": 12551, "cpp": 20322, "EG": 7156, "Ġsought": 7194, "aunted": 20227, "Ġtilted": 37229, "ĠHIM": 45909, "uled": 6309, "Ġassistance": 6829, "asonable": 17994, "Ġ1898": 46244, "comm": 9503, "Ġoverride": 20957, "ierce": 9798, "oyle": 19802, "ĠRails": 31493, "ĠStephan": 20800, "Ġslower": 13611, "kind": 11031, "Honestly": 40817, "Ġwords": 2456, "Ġdecreasing": 24030, "ĠBrain": 14842, "rants": 15087, "ĠConquest": 29221, "Copy": 29881, "roach": 28562, "Cold": 34312, "ĠSUB": 28932, "Ġchats": 40815, "ĠLabs": 23500, "ap": 499, "ĠIvan": 21798, "ĠShut": 18736, "kell": 17164, "Ġcaptured": 7907, "ĠRear": 30144, "Ġguard": 4860, "Ġiso": 47279, "Ġsculpture": 26924, "Ġrevert": 34052, "Ġ[/": 46581, "ames": 1047, "controller": 36500, "ĠRh": 10323, "Giving": 49701, "Ġresonance": 29371, "Ġdx": 44332, "ĠâľĶ": 28497, "Ġbusted": 36193, "Ġslogan": 23796, "hang": 33255, "Ġerrors": 8563, "ĠGraham": 11520, "Wi": 31294, "wu": 43812, "ĠMolecular": 38275, "ĠstrutConnector": 50009, "Ġ2100": 38123, "Ġbetter": 1365, "Ġepigen": 49651, "ĠImran": 39998, "Ġwanna": 18869, "ĠRookie": 36595, "ĠBabel": 50175, "reddit": 10748, "attery": 16296, "conservancy": 41215, "Ġtim": 4628, "Plan": 20854, "ĠSurely": 28417, "iland": 40855, "Ġscatter": 41058, "Ġverbs": 41781, "ĠChristopher": 12803, "BILITY": 25382, "Ġsketches": 34035, "exit": 37023, "Ġcompliant": 31332, "Ġbrunch": 50219, "Ġphysi": 42087, "aun": 1942, "ĠSafe": 19978, "ĠRelationship": 39771, "enter": 9255, "Awesome": 49061, "Ġdowntime": 45832, "PATH": 34219, "Ġsweating": 38912, "ramid": 20255, "multiple": 48101, "Ġpassages": 22674, "Ġredacted": 44740, "Ġhunted": 34275, "Ġpresenter": 39597, "ĠSystem": 4482, "reath": 19367, "Ġpopular": 2968, "Pict": 21300, "ĠXiaomi": 46726, "Ġencountered": 12956, "Ġretrieving": 50122, "Ġpulls": 16194, "ĠRoberts": 10918, "appa": 20975, "NPR": 38588, "ipple": 18793, "Ġreliable": 9314, "worker": 28816, "hibited": 44139, "ĠFloyd": 21150, "Ġcloudy": 40026, "ĠLittle": 7703, "ĠCT": 16356, "ĠKinn": 33304, "Ġ370": 28687, "573": 48638, "Ġgrocery": 16918, "ĠIEEE": 40552, "Ġwhiff": 48112, "ĠElastic": 48567, "ĠCannes": 50158, "HD": 10227, "ĠEDIT": 48483, "ems": 5232, "Ġprocessing": 7587, "ĠPathfinder": 37025, "Ġpanicked": 38225, "Ġpun": 4000, "Ġprecon": 49394, "ĠDign": 43674, "engine": 18392, "oric": 8146, "ĠLena": 44131, "Ġdizz": 29527, "Ġtint": 34791, "ĠRunner": 21529, "av": 615, "é": 165, "Ġclashed": 37003, "ĠProperty": 14161, "Ġincest": 35961, "Ġframes": 13431, "ĠDublin": 18220, "ĠBurns": 23592, "0002": 34215, "cool": 24494, "718": 45720, "ĠWHERE": 33411, "Behind": 34163, "Ġpromotion": 12148, "ğ": 219, "ivable": 21911, "Ġobservation": 13432, "ä": 160, "summary": 49736, "ĠConsumers": 45103, "Ġsocietal": 26877, "ĠActually": 18689, "Ġalone": 3436, "Ġcasinos": 39855, "ĠLutheran": 43772, "Ġprogression": 17085, "Ġbis": 47457, "ĠComments": 19502, "mine": 3810, "Writer": 34379, "Ġ\"-": 27444, "Ġ=================================": 46111, "rc": 6015, "minster": 18462, "Public": 15202, "ĠShades": 47260, "Mart": 13143, "Ġneglect": 17985, "ĠCricket": 34761, "itute": 3678, "Ġdiploma": 41220, "Ġleveling": 34661, "Ġrecent": 2274, "ĠFilter": 25853, "ĠBast": 17520, "anger": 2564, "ĠSeeing": 25913, "Ġrivalry": 26390, "Ġportfolios": 47837, "Ġbarrage": 33633, "ĠShould": 10358, "Ġpleasant": 15497, "Ġsleeping": 11029, "ĠRegistry": 33432, "Joshua": 47740, "Ġvertically": 31677, "Ġmascul": 18498, "ĠBes": 30837, "ĠYear": 6280, "iliate": 49826, "6666": 19060, "ovo": 18768, "ĠHighland": 39874, "ĠHowell": 47554, "ĠCOMMUN": 48811, "Ġcontend": 24351, "lov": 27086, "basic": 35487, "Ġhinge": 41968, "Machine": 37573, "ĠBlueprint": 39932, "498": 36260, "Ġlousy": 46356, "ĠTrends": 34308, "Ġaccelerated": 23312, "Ġcasualties": 18499, "Ġeroded": 44699, "Ġgoalt": 30896, "Alpha": 38077, "ĠAlso": 4418, "Ġaversion": 41608, "ierra": 16367, "ĠCarnegie": 33976, "Ġfilming": 17691, "olesc": 16850, "just": 3137, "Ġop": 1034, "reens": 5681, "Kind": 35854, "Ġspinning": 19493, "ĠNavy": 8565, "Ġmilit": 2036, "ĠHu": 11256, "ryu": 49056, "zzy": 31570, "uced": 19513, "forward": 11813, "Years": 40630, "fledged": 45223, "filled": 20286, "ken": 3464, "Ward": 49021, "Ġdiss": 6249, "ĠStick": 22994, "Ġ367": 40884, "Ġtank": 6873, "uably": 14632, "Eva": 44239, "\":\"\"},{\"": 47182, "Ġtall": 7331, "\\\\": 6852, "Sus": 30746, "Ġattributable": 29816, "ĠMermaid": 45523, "yrim": 17302, "Ġindust": 2226, "ĠBuddh": 20921, "Ġgeo": 40087, "Weapon": 27632, "Ġcapturing": 21430, "ĠUttar": 44744, "Ġresponding": 14409, "Ġsynagogue": 41953, "ĠGinny": 37877, "ĠKon": 17431, "Ġdemos": 35551, "NESS": 31097, "Ġparagraph": 7322, "tele": 46813, "Ġ176": 26937, "Ġdysfunctional": 38127, "355": 28567, "ĠViolent": 35615, "adia": 29523, "Ġstole": 18240, "ĠFixed": 10832, "Ġpredis": 46276, "Ġgrand": 4490, "Ġ48": 4764, "Ġcorrelations": 35811, "Ġclo": 28050, "ĠBid": 43484, "sufficient": 46790, "imester": 47484, "Ġpivot": 30355, "å¸": 30585, "Ġbeneficiaries": 28237, "Ġcapabilities": 9889, "ĠGoat": 40423, "zy": 7357, "Ġdwell": 14046, "Ġpicture": 4286, "ales": 2040, "TI": 25621, "604": 31916, "ĠAnk": 24792, "Ġautomatically": 6338, "inking": 8040, "ĠMuslim": 3765, "Ġintelligent": 12661, "cephal": 43996, "obia": 30665, "modified": 41771, "draw": 19334, "JO": 45006, "holiday": 37689, "Ġgh": 24997, "Ġunlikely": 7485, "Ġoccurs": 8833, "Ġ32": 3933, "Ġstrife": 39809, "ĠOx": 10736, "Ġanything": 1997, "Ġextravagant": 45997, "Ġlight": 1657, "dra": 32491, "ĠFalcons": 21026, "ĠIter": 40806, "Ġbloom": 29955, "Ġoffer": 2897, "ĠDread": 27005, "ĠMarin": 36384, "ogene": 20878, "ĠOz": 18024, "ĠSUV": 26763, "Ġ131": 23134, "Ġthreshold": 11387, "ativity": 22055, "Ġcurved": 26929, "ĠBark": 20511, "ĠWander": 49367, "ĠSche": 10011, "eree": 45316, "Ġfees": 6642, "Ġcurly": 45731, "ĠÂ": 1587, "Ġblades": 20784, "Ġbare": 6247, "Ġfeeling": 4203, "ĠVirginia": 6025, "fix": 13049, "Ġengagement": 12352, "713": 50055, "Ġactivating": 35795, "Ġ[âĢ¦]": 23834, "ĠPokÃ©mon": 9887, "Ġsuggest": 1950, "Ġanthropology": 45424, "Ron": 23672, "@@": 12404, "Hack": 32833, "aepernick": 28333, "ĠPelosi": 29611, "Ġconsciously": 30410, "hal": 14201, "ocom": 42829, "997": 39647, "Education": 41183, "wang": 47562, "Ġ----": 13498, "ĠDouglas": 15796, "colonial": 49787, "ose": 577, "Ġcannabinoid": 48175, "Ġarguably": 15242, "oÄŁ": 45492, "bled": 9342, "Ġboats": 16659, "Part": 7841, "ĠProb": 30873, "Ġdisappear": 10921, "Ġ156": 23871, "Ġrapp": 29106, "nexpected": 42072, "Ġflowing": 17609, "O": 46, "Kids": 40229, "Ġdetrimental": 29417, "ĠLogin": 23093, "ĠLeicester": 29224, "Ġtraining": 3047, "Actor": 40277, "ĠPepe": 49761, "ĠJudging": 47024, "Vs": 23266, "argument": 49140, "ĠVisual": 15612, "locking": 48331, "ĠRefer": 33973, "ãĤī": 36853, "apist": 41690, "GO": 11230, "ĠJava": 7349, "rea": 21468, "Ġevidenced": 30204, "Ġaxis": 16488, "Ġgovernor": 8153, "588": 39118, "Ġconsumes": 37225, "ĠNil": 29213, "Being": 18357, "ĠCle": 3779, "Ġstories": 3923, "foo": 21943, "ishly": 29735, "Audio": 21206, "Ġbreach": 13694, "Photos": 21197, "Ah": 10910, "Ġconceivable": 40324, "Ġape": 43835, "ĠRPM": 32381, "Ġgloves": 18051, "Ġlaboratories": 35650, "Ġincluded": 3017, "Ġencour": 4052, "Ġdenying": 17086, "ifice": 9680, "40": 1821, "Ġpossessed": 17273, "Ġtheater": 13766, "ĠPratt": 34780, "im": 320, "irds": 11049, "Error": 12331, "Ġbehaving": 37722, "have": 14150, "eters": 7307, "Ġfragile": 21049, "ĠZimmer": 18926, "everything": 37814, "itement": 12559, "Ġpersecut": 32072, "umer": 6975, "herical": 37910, "Script": 7391, "ĠTrek": 12338, "Ġadapter": 21302, "Ġbumps": 34029, "ĠVaj": 39838, "ĠNPR": 17921, "Ġregulator": 24161, "manac": 46870, "ĠJennifer": 16348, "worm": 25323, "Ġslowly": 6364, "sts": 6448, "Ġfinancing": 15435, "asks": 6791, "riend": 1289, "ĠSeymour": 42843, "third": 17089, "Ġ222": 27795, "fox": 12792, "ĠNFL": 5134, "ĠXie": 48989, "Ġconstrained": 31070, "Ġpeople": 661, "ians": 1547, "Ġoh": 11752, "arcity": 32689, "etter": 40088, "Ġdeviations": 47060, "Ġrobots": 14193, "ĠClose": 13872, "ĠMN": 29060, "ĠKre": 25732, "udic": 28673, "ĠSAM": 28844, "ĠZeal": 8417, "Ġtons": 10860, "Ġscratching": 34688, "ĠMafia": 32676, "ipedia": 11151, "eros": 27498, "Ġrenegoti": 48312, "ĠOt": 19740, "ĠGABA": 47046, "Ġskelet": 17773, "ĠWritten": 22503, "ĠAutomatic": 30199, "ĠBagg": 49329, "ĠKhan": 11356, "Ġendeavor": 28251, "hog": 31897, "ouble": 15270, "Muslim": 17067, "ĠSchne": 23343, "ĠFields": 23948, "Ġadul": 19046, "trap": 46670, "Ġsuing": 28941, "Ġmythology": 25871, "pg": 6024, "Ġcamouflage": 37353, "Ġsymptom": 25993, "ĠLists": 44968, "Ġbees": 17002, "ĠARM": 20359, "Ġsuppress": 18175, "itimate": 30233, "ĠDragonbound": 17900, "ĠArd": 34597, "Ġpresents": 10969, "ĠMock": 44123, "Ġswarm": 30077, "Ġferocious": 40831, "2007": 12726, "Ġfancy": 14996, "Ġpay": 1414, "Ġpredicament": 44472, "OSP": 47053, "ĠDund": 37921, "Ġgift": 6979, "ĠZel": 40071, "along": 24176, "Using": 12814, "Ġdistracted": 22943, "Ġwisdom": 11501, "clud": 758, "Ġdishon": 32045, "ĠCherry": 23165, "Ġpartly": 11476, "ĠEscape": 14473, "ĠAbove": 23302, "Ġmalt": 26868, "rights": 28046, "usions": 15880, "Ġtheaters": 20550, "Ġcarrot": 40562, "Ġlocals": 17205, "Ġab": 450, "Ġintestine": 45426, "ĠJeffrey": 19627, "ATA": 13563, "ĠJudaism": 26976, "Ġtension": 12097, "Ġ[\"": 14631, "Ã¶": 9101, "Ġlick": 36728, "794": 50242, "equal": 40496, "url": 6371, "ĠCODE": 42714, "ĠClosed": 30550, "ĠAcross": 27497, "Ġmanual": 10107, "steps": 20214, "unknown": 34680, "ĠNin": 10516, "partisan": 28226, "594": 46438, "ĠMarvel": 9923, "Ġmaking": 1642, "al": 282, "ĠSanchez": 21909, "%)": 4407, "ĠSpider": 12648, "ĠRace": 12588, "chest": 46713, "ĠAFB": 43827, "ĠGott": 39451, "Ġinitially": 7317, "ĠHau": 49696, "Ġwillingly": 30981, "ĠMoor": 31451, "Ġpit": 6028, "ĠBeg": 47479, "Ġmunicip": 11076, "ass": 562, "Ġhousing": 5627, "Ġwidth": 9647, "ĠResponsibility": 42988, "illary": 15856, "Ġnuisance": 36212, "ĠScript": 12327, "ĠBeard": 41698, "urchase": 18737, "ĠExplain": 48605, "ĠBOX": 45216, "iak": 32994, "bsite": 12485, "Ġnostalg": 22314, "Ġproducing": 9194, "Ent": 14539, "overe": 33518, "oked": 6545, "OP": 3185, "Ġbosses": 17317, "ö": 178, "Ġreorgan": 35459, "Ã´": 27083, "Ġdecidedly": 32343, "ĠAlong": 17159, "Ġskeletal": 30142, "house": 4803, "File": 8979, "Ġgravy": 43779, "KS": 27015, "ĠAbyssal": 45123, "tw": 4246, "ĠWhit": 13183, "Ġarri": 2914, "975": 42716, "Ġlift": 10303, "WithNo": 35992, "ires": 2387, "ĠPretty": 20090, "Ġfore": 1674, "ĠRutgers": 30595, "Ġbulbs": 34122, "ĠAla": 42682, "Ġcontainer": 9290, "ãĥ³ãĤ¸": 45823, "Ġmodem": 38053, "Ġtrumpet": 40334, "Ġinstances": 10245, "ĠLaur": 13240, "Pros": 35726, "zbek": 40413, "ĠIntelligence": 9345, "ĠClicker": 44051, "Ġathe": 13366, "ĠEisen": 22633, "fuck": 31699, "Ġneither": 6159, "Ġsettlers": 25371, "since": 20777, "stretched": 49729, "ĠLord": 4453, "Ġignored": 9514, "Ġwheel": 7825, "Ġfaded": 24887, "ĠNob": 8140, "cript": 6519, "ĠTerminator": 41830, "ourge": 14501, "Ġchoked": 39283, "games": 19966, "Ġnap": 25422, "Ġheart": 2612, "ERT": 17395, "ĠJub": 38075, "Ġflooded": 21050, "owntown": 22748, "ĠWR": 11342, "Ġquarterly": 27868, "ĠSynd": 19148, "Ġprogressive": 10393, "ĠZhang": 19439, "Ġaz": 35560, "Ġtreasurer": 43428, "ĠHighway": 14914, "Ġpopped": 22928, "ĠLoving": 39202, "ower": 789, "Ġdestroyer": 41056, "Ġsuperb": 21840, "ĠBAD": 33934, "Ġpolicy": 2450, "ĠDas": 29533, "Ġdisruption": 19911, "Dash": 43041, "Ġreminder": 15438, "wr": 18351, "ĠClancy": 46255, "Ġpeaks": 25740, "Ġedible": 35988, "ĠHedge": 41078, "Ġfoods": 9013, "Metal": 36790, "ĠPearl": 18482, "Ġcommits": 23463, "ĠAssad": 13032, "Ġtyres": 40498, "ĠTak": 15804, "niper": 45554, "123": 10163, "ima": 8083, "Integer": 46541, "Ġadvisors": 32456, "055": 47838, "Cod": 43806, "rica": 30997, "ĠYanuk": 37068, "Ġpromot": 4256, "adiator": 33716, "ĠParker": 13612, "ĠPalmer": 18918, "ĠTransition": 40658, "Ġegregious": 34372, "lopp": 39590, "otonin": 29613, "Ġprotests": 8536, "Ġwastewater": 42073, "Ġwrote": 2630, "erb": 23552, "rent": 1156, "ĠLoren": 32035, "Ġrename": 36265, "ublished": 33286, "ĠUL": 44475, "Ġstring": 4731, "Is": 3792, "Ġfavoring": 43567, "pherd": 23111, "Ġfabulous": 28294, "eping": 7213, "existent": 32786, "Ġe": 304, "ĠSelection": 29538, "urse": 12321, "points": 13033, "AMY": 29428, "indust": 23213, "Ġretrospect": 23583, "lyn": 6213, "ĠZamb": 44418, "ĠURLs": 32336, "Ġculprit": 26581, "ĠTerritory": 25219, "ĠAcademic": 31421, "Ġconf": 1013, "done": 28060, "ansk": 34738, "Ġexcuse": 12226, "ĠTrout": 42542, "icion": 47430, "Ġjarring": 47300, "?'\"": 26989, "Hardware": 49865, "ĠJaguar": 39288, "Ġflips": 45971, "interrupted": 46037, "igm": 17225, "D": 35, "ĠKardash": 42239, "Ġ(<": 38155, "ĠTruman": 33027, "ĠGaddafi": 40320, "ĠSchw": 20469, "ĠGoals": 28510, "Ġfeats": 35664, "ĠPolitics": 17554, "767": 32059, "Ġelement": 5002, "rams": 9474, "arah": 23066, "Ġsecession": 43314, "ĠSensor": 35367, "Ping": 49806, "Ġcompulsory": 31967, "Legendary": 24524, "Ġdisrupting": 37915, "tra": 9535, "Ġmisconduct": 17063, "num": 22510, "ĠKinnikuman": 43010, "ĠHolder": 24210, "otos": 14163, "Ġ311": 35592, "Ġalienation": 44984, "ĠJames": 3700, "Ġgunshot": 29444, "ĠEarth": 3668, "effects": 34435, "ĠBras": 39452, "ps": 862, "Ġwool": 25749, "ola": 5708, "ins": 1040, "Ġ140": 12713, "ĠPatrol": 20989, "Ġmalaria": 33917, "Kate": 45087, "However": 4864, "frames": 37805, "ĠElise": 46174, "keeping": 19934, "Ġprominent": 9208, "Ġcape": 36023, "topic": 26652, "ĠSharks": 31547, "ĠEVER": 20498, "nu": 28803, "USD": 29072, "Ġanecdotes": 44662, "May": 6747, "ĠISIS": 7768, "mann": 9038, "Ġconfronts": 42650, "chid": 28402, "Ġtaking": 2263, "Ġdist": 1233, "***": 8162, "Ġorganize": 16481, "ĠCGI": 36378, "Ġknocked": 13642, "ugar": 35652, "ĠGraphic": 43029, "shore": 14640, "ĠYates": 34916, "oÄŁan": 48030, "ĠDerby": 22962, "ĠFAC": 44216, "ĠJust": 2329, "oky": 31375, "Ġrant": 30993, "Ġrank": 4279, "Ġcosmetic": 27284, "Ġsums": 21784, "atoon": 23122, "ĠRupert": 34315, "Ġreluctantly": 35462, "Ġsoul": 5848, "mere": 34671, "rawdownloadcloneembedreportprint": 30906, "ĠDef": 2896, "ĠObamaCare": 38195, "M": 44, "Ġmetadata": 20150, "]'": 49946, "ĠOpera": 26049, "acks": 4595, "orage": 4945, "Ġcredible": 18409, "Applications": 41995, "Ġmildly": 33544, "ĠGrizz": 31106, "Ġlame": 30248, "Ġweeping": 45705, "Ġoutfield": 28307, "Ġhinted": 27388, "ĠHours": 19347, "ModLoader": 24847, "bearing": 28655, "ĠPoe": 34815, "exclusive": 41195, "ĠWitt": 38005, "Ġaffiliates": 29116, "ĠHarley": 27440, "ĠMethodist": 38029, "alyst": 21470, "answered": 31966, "Users": 14490, "profile": 13317, "Ġgrossly": 40316, "Ġ112": 13539, "NEY": 36231, "Ġimmersive": 31403, "Ġ1930": 15533, "operated": 42767, "Bottom": 34104, "Ġlone": 13497, "Ġcaves": 30923, "Minnesota": 45670, "rue": 24508, "ãħĭ": 35098, "Function": 22203, "Ġoutlets": 12527, "Ġdiscrepancy": 34466, "Microsoft": 15905, "Ġdisgust": 16234, "Ġexceeding": 23353, "rien": 15355, "checked": 26752, "ĠChrys": 27856, "ĠMarcel": 36547, "highly": 47444, "OO": 6684, "ĠEuropa": 29890, "iques": 6368, "ĠAircraft": 30767, "ĠJong": 17960, "Ġbrick": 17214, "ĠGarrison": 39233, "irtual": 22341, "Ġallotted": 44554, "ĠMartial": 28526, "Ġ71": 9166, "ĠThor": 13002, "sample": 39873, "Ġadministrative": 11553, "rapnel": 48766, "Already": 37447, "OX": 48632, "ĠDrupal": 40452, "ĠNay": 38808, "umatic": 16735, "ishops": 21863, "Ġkept": 4030, "Ġbehave": 17438, "ĠDetroit": 8488, "things": 27971, "atech": 40340, "ĠROS": 48263, "ĠBonds": 39161, "Ġtray": 26473, "Ġcooling": 15134, "akis": 27321, "ollar": 13228, "Ġlan": 26992, "ĠHouses": 34336, "Ġdefective": 32129, "ĠBane": 38112, "Ġkarma": 31789, "Ġrude": 22066, "hyd": 15511, "ĠChromebook": 39767, "Ġfan": 4336, "ĠHQ": 25112, "Ġatro": 38324, "Ġlat": 3042, "017": 29326, "Ġblockchain": 11779, "Ġremedies": 29604, "Ġimproperly": 34250, "ĠStall": 35719, "ĠSergey": 36106, "ILA": 47164, "ĠChurchill": 25987, "Ġbegins": 6140, "prone": 46330, "Ġbuds": 36402, "orange": 43745, "ĠGNU": 22961, "Ġrows": 15274, "Ġnotorious": 18192, "Ġthumb": 15683, "Ġaggression": 15569, "Ġinvoice": 45458, "ĠAnalytics": 30437, "Ġuncle": 7711, "ĠCaucasian": 43172, "Ġsharks": 27476, "Ġelong": 39696, "Ġpool": 5933, "masters": 40706, "performance": 26585, "itives": 20288, "Attorney": 46319, "ĠHBO": 18804, "Ġcausation": 46850, "ĠSturgeon": 43623, "Ġdense": 15715, "Ġleader": 3554, "lectic": 42009, "Nar": 40059, "Ġdinner": 8073, "Ġstag": 35251, "Ġcausal": 26558, "Ġintensive": 18590, "Ġsteroids": 31397, "Ġgal": 9426, "Ġextrap": 36804, "ĠAdvoc": 37866, "Ġsec": 792, "Ġaspiration": 48217, "ĠWelcome": 19134, "Ġspread": 4104, "Ġunite": 24558, "inside": 48787, "Aff": 35191, "Ġrebuild": 17884, "Ġtacit": 40787, "Ġvantage": 47929, "Ġlights": 7588, "ĠBritt": 26036, "Bio": 42787, "ĠDarwin": 21450, "Ġshoppers": 30303, "Ġindistinguishable": 43649, "against": 32826, "uits": 15379, "ĠBishop": 16559, "ension": 3004, "Ġdestinations": 23982, "Ķ": 242, "luent": 28216, "Ġinference": 32278, "Ġalley": 23978, "Prov": 15946, "Ġmagnesium": 33525, "Ġcries": 24691, "Ġbaker": 46412, "ĠOops": 48002, "Ġdraws": 14293, "Ġcountries": 2678, "Ġhemorrh": 42203, "ĠRory": 37178, "ĠGeoff": 24688, "obo": 20391, "Ġunsuspecting": 41975, "wy": 21768, "Ġanonym": 14571, "ĠRudd": 36131, "ĠBridges": 41839, "ĠPetraeus": 46364, "organized": 30280, "Ġpatches": 16082, "Ġgcc": 49582, "ĠEco": 38719, "Ġmorphed": 49976, "Help": 22087, "Ġhurled": 43186, "Ġexpanding": 11581, "ATING": 33881, "Ġrefer": 3522, "Ġastounding": 34328, "Specifically": 48379, "Ġuniqueness": 49650, "Ġresidences": 45402, "Ġbeaut": 3566, "ben": 11722, "Ġgranting": 21787, "ATURES": 47471, "ajor": 1518, "Ġcons": 762, "ĠPreferred": 31278, "Ġ87": 10083, "ĠParticularly": 47674, "Ġdetail": 3703, "Ġunfavorable": 38206, "Ġgeography": 27876, "}}}": 42535, "Ġrents": 28393, "kish": 31501, "ĠCentOS": 32418, "Ġmixture": 11710, "nor": 13099, "ably": 1346, "Ġbeasts": 21930, "MIC": 49884, "294": 27696, "ĠNIGHT": 37707, "ĠBlend": 41198, "Ġ<<": 9959, "ĠPlanning": 21913, "ĠFounder": 30153, "osion": 18442, "Ġstout": 39171, "Ġadapters": 46363, "ĠSheen": 50189, "Ġrehe": 22891, "ĠElse": 25974, "Ġdamages": 12616, "FUN": 42296, "Ġunimagin": 37656, "AMD": 28075, "Ġq": 10662, "ĠNon": 8504, "Tor": 15884, "Ġreel": 35672, "Ġpirates": 27516, "emporary": 33080, "Ġsanctioned": 30572, "Ġbruised": 44379, "Ġparticle": 18758, "Ġpunched": 25436, "ó": 175, "ĠXVI": 49090, "Ġleather": 11620, "Ġdepri": 15659, "Ġevil": 6181, "ĠACA": 27628, "ĠHUM": 45850, "Ġquarantine": 48827, "ĠAtkinson": 49042, "ĠCompar": 22565, "Ġmistrust": 48611, "iola": 30292, "ĠWitness": 21440, "Ġmelancholy": 47886, "ĠDeg": 25905, "Ġfam": 1145, "Bush": 36113, "software": 43776, "angel": 8368, "Ġwonder": 4240, "ĠGordon": 11646, "Ġvoltage": 15004, "Ġforfeiture": 32075, "Ġsidx": 36929, "Ġflares": 45831, "ĠClaire": 20758, "Ġredistributed": 38913, "ĠLuke": 11336, "Ġsnakes": 26042, "Jackson": 31270, "Ġmuse": 26817, "Ġinsensitive": 41246, "orescent": 35414, "ĠRun": 5660, "Ġpopulation": 3265, "obar": 30973, "Ġrevered": 37184, "Ġsurvivor": 23446, "arry": 6532, "Ġmoderates": 47019, "ĠRusty": 47449, "Ġwhims": 38411, "ĠAren": 9843, "ĠHash": 21059, "Target": 21745, "Ġcharacteristic": 16704, "ĠCoff": 28584, "Ġbooze": 39399, "...?": 44825, "pty": 5835, "Ġredistribution": 41425, "pecially": 2333, "gon": 14520, "Ġthank": 5875, "Ġmansion": 24141, "ĠVarg": 44684, "Ġfoo": 22944, "Ġ276": 38147, "querade": 33357, "ĠItem": 9097, "Ġbloss": 35107, "awaited": 41742, "ilot": 23439, "Ġstump": 42497, "75": 2425, "ĠBBQ": 32083, "abwe": 27050, "Ġfoe": 22156, "ERROR": 24908, "Ġhanding": 22786, "IT": 2043, "Ġcrude": 14897, "Ġoverloaded": 50068, "ĠSatellite": 33530, "Ġblinded": 38497, "ĠSovereign": 44964, "Ġenvoy": 39137, "Î¹": 29945, "images": 17566, "Wh": 1199, "Ġmultiplying": 48816, "repair": 49932, "Ġshin": 40465, "Ġsuitcase": 45391, "ĠCyp": 48881, "VI": 12861, "ĠEd": 1717, "ĠPlaces": 37291, "Ġshortstop": 40388, "Originally": 22731, "Ġcontrolled": 6856, "Ġprovisional": 37042, "Ġinherently": 20108, "Hillary": 20397, "oster": 6197, "Installation": 30838, "micro": 24055, "Liberal": 46650, "Ġspills": 42123, "Ġrem": 816, "Ġcrochet": 46149, "Ġoxy": 10661, "âĢ¦.": 11580, ".......": 25780, "alias": 26011, "Ġunsu": 48092, "EngineDebug": 49781, "âĸº": 45717, "ĠSpawn": 36356, "ICK": 11860, "Ġnpm": 30599, "acy": 1590, "ą": 193, "aird": 41620, "799": 45455, "Ġtelescope": 24344, "li": 4528, "Ġadvantageous": 39512, "ĠIE": 28157, "LI": 31271, "Query": 20746, "Ġstudent": 3710, "bial": 25200, "Und": 31319, "Ġtoilets": 32711, "ĠDial": 21269, "ĠCutter": 49160, "proxy": 36436, "Ġliver": 14383, "ĠHuang": 31663, "187": 23451, "Jan": 12128, "ĠQur": 17599, "ĠFUCK": 30998, "ĠReplay": 23635, "uther": 12866, "ĠTimes": 3782, "Ġmental": 5110, "Ġtie": 9839, "Ġclaims": 3667, "Ġsinking": 27141, "Ġshareholders": 19195, "Ġspe": 693, "ĠMilwaukee": 16629, "Ġefforts": 4040, "Ġimpatient": 33440, "208": 21315, "legged": 40898, "ĠLim": 7576, "ĠRecommended": 31117, "DL": 19260, "335": 27326, "TT": 15751, "DT": 24544, "resp": 4363, "ĠCrossRef": 42750, "Ġsingle": 2060, "Ġdaddy": 35822, "ĠNeither": 16126, "Ġ400": 7337, "Running": 28768, "Ġturf": 29553, "Ġbiscuits": 50128, "hari": 49573, "ĠOccupy": 25551, "ĠBorders": 40934, "ICS": 19505, "Ġrevol": 35891, "weekly": 45291, "ĠAnon": 49347, "ppel": 46357, "Russian": 16220, "ĠMacedonia": 36353, "âķĲ": 28670, "ĠPsychiatric": 46404, "Ġveterin": 33647, "ĠEngineers": 27170, "cro": 19915, "Ġrespawn": 42929, "Ġelectrode": 46203, "Ġinstincts": 26744, "Ġplans": 3352, "oggle": 20258, "ĠDamien": 46107, "Size": 10699, "ĠRestaurant": 26078, "ĠMatrix": 24936, "Ġinteracts": 44020, "ĠKhalid": 44544, "mont": 8691, "ĠKling": 28638, "uli": 32176, "Ġcompan": 2463, "Ġexcel": 27336, "istries": 32995, "Ġcompelling": 13206, "OSE": 14058, "ĠCes": 42518, "Enough": 47323, "Ġobsession": 22286, "Ġbehavior": 4069, "Ġbabe": 42666, "Ġbarking": 48961, "vim": 31124, "hub": 40140, "%]": 39850, "hillary": 47826, "Ġperce": 36974, "ĠMets": 26053, "icho": 38720, "ĠHur": 10077, "ĠIncreased": 25944, "checking": 41004, "ĠGlobe": 18260, "Ġscouting": 27088, "Ġaloud": 32227, "Ġchloride": 44921, "Ġoak": 26210, "Boston": 31710, "Ġwhat": 644, "ĠSEN": 44738, "ĠYosh": 28563, "celer": 7015, "umbers": 17024, "Ġflare": 30239, "Ġibn": 47160, "entials": 14817, "Ġvoc": 12776, "Ġsem": 5026, "ĠIsaiah": 29756, "Ġdiscreet": 38724, "ĠTerr": 38859, "zsche": 37467, "ĠPrimal": 37712, "Ġmovies": 6918, "Ġobstruct": 26520, "Ġrenovated": 46353, "cream": 36277, "Ġsunrise": 40048, "TW": 34551, "Research": 25104, "Ġweakness": 10453, "ospels": 41908, "ĠAssistant": 15286, "ĠIndies": 42556, "ĠAncients": 46966, "Ġneedle": 17598, "Ġincomprehensible": 47757, "ĠActing": 37539, "ĠMessages": 43534, "Ġrethink": 36437, "ãĤ«": 21763, "ticket": 43350, "long": 6511, "Ġagricultural": 14240, "BP": 20866, "Ġswitched": 15293, "Ġparted": 37813, "olyn": 34742, "Ġregression": 20683, "Ġdisabled": 10058, "Ġexpend": 12220, "Ġexceedingly": 32436, "ĠAy": 13709, "INK": 17248, "ĠGrowth": 19045, "IRC": 49060, "IVE": 9306, "ĠSixth": 28980, "oteric": 38571, "Ġpronouns": 43947, "ĠPact": 41460, "berger": 21041, "Ġresponses": 9109, "ĠTrident": 47907, "Ġtypical": 7226, "Ġrental": 14447, "ahi": 32810, "ness": 1108, "Ġhasn": 5818, "ĠPotter": 14179, "erity": 32821, "ĠLouie": 48352, "Ġalgorithms": 16113, "shift": 30846, "Ġdocking": 45441, "Ġeventual": 19657, "Ġadv": 1354, "ĠPanzer": 46294, "aan": 28340, "ĠStatements": 44936, "ĠBurger": 28983, "Ġwidgets": 40803, "Ġfurther": 2252, "Ġcrept": 47092, "ĠGuinea": 22777, "Ġ580": 41234, "ĠGamma": 43595, "Ę": 212, "Ġ19": 678, "ulkan": 31263, "Ġbliss": 30533, "Args": 42035, "Ġbow": 9563, "ĠSavage": 22287, "bags": 34005, "Ġairplanes": 32808, "Ġmember": 2888, "ĠConstant": 20217, "ĠLifetime": 40870, "Ġnab": 47822, "Jun": 22396, "prints": 17190, "Ġupt": 18529, "ĠEle": 15987, "7601": 42752, "Ġspectacle": 27519, "Ġslashed": 34930, "ĠIND": 24413, "à©": 43297, "ĠWyoming": 24533, "ĠRaiders": 16120, "enton": 26673, "Ġmatters": 6067, "ĠWhatever": 15935, "ĠSAS": 35516, "Richard": 22245, "itionally": 8736, "ĠRoyals": 30245, "ĠTent": 30765, "tall": 35429, "Ġstrong": 1913, "600": 8054, "Ġunrem": 49733, "ĠOperating": 24850, "got": 23442, "Ġlightweight": 18700, "ĠMur": 5921, "Ġapplied": 5625, "Ġgrant": 7264, "Ġspirited": 46875, "ieve": 12311, "Ġviol": 1935, "Ġstr": 965, "Ġtreacher": 32550, "ĠCON": 7102, "Ġfootnote": 38512, "ĠTier": 15917, "Ġgriev": 21634, "ĠGuitar": 31550, "Meanwhile": 10294, "ĠRost": 48306, "ley": 1636, "ĠIchigo": 44547, "requ": 8897, "weed": 39054, "Ġpause": 14985, "isks": 36730, "Ġwield": 15445, "ĠBrid": 28320, "ĠTransmission": 41653, "Ġworkout": 17578, "Ġrockets": 20293, "Ġsex": 1714, "Bob": 18861, "istence": 13274, "Ġcancellation": 25395, "ĠmRNA": 47227, "imposed": 36457, "Ġchassis": 24587, "ĠNone": 6045, "Ġsketch": 17548, "usually": 23073, "approximately": 47498, "ly": 306, "ucket": 38811, "orig": 11612, "Ġhob": 32724, "Ġrealization": 23258, "798": 43240, "ĠChloe": 29476, "Ġtoken": 11241, "Ġworldwide": 8688, "Ġsolicitor": 48709, "ĠTayyip": 41346, "¡": 94, "Ġmathematics": 19473, "ĠCubs": 21562, "PORT": 15490, "gpu": 46999, "Ġfreight": 30724, "lege": 2765, "iane": 46470, "iframe": 39621, "ĠSab": 9910, "Ġturned": 2900, "ĠGing": 26169, "ĠKoen": 49178, "ĠFool": 36458, "å¤§": 32014, "flag": 32109, "verning": 13974, "IDE": 14114, "Ġproudly": 23017, "ĠSon": 6295, "iked": 17951, "Ġcandidate": 4540, "ĠAfghan": 6539, "shaped": 16760, "Ġutility": 10361, "Friend": 23331, "Ġdisdain": 31564, "ĠHeroic": 34364, "ĠHammond": 26649, "Tab": 33349, "Ġ\"'": 24018, "olitics": 21704, "Ġsignificance": 12085, "engeance": 21364, "ĠManit": 24394, "Ġholiest": 47264, "Ġgardens": 25476, "ĠShows": 25156, "Ġguru": 35730, "Ġpursuant": 12997, "anka": 15927, "ĠBarbie": 46829, "hp": 24831, "Rad": 15546, "ĠAppalach": 36390, "western": 14197, "Ġanticipate": 23794, "ĠHandling": 49500, "ĠPeters": 15722, "ĠExport": 36472, "Rock": 19665, "Ġdeserved": 20143, "Ġmes": 18842, "eteen": 34026, "Ġallied": 22034, "Ġgenomic": 45752, "ĠHyp": 21209, "Ġlinebacker": 18961, "ichever": 22617, "Ġmurm": 38023, "ĠNo": 1400, "Ġtower": 10580, "171": 27192, "Ġsighed": 21893, "Ġprotr": 39701, "ĠReneg": 41261, "Nut": 49004, "Ġgoals": 4661, "Ġoccurrences": 40279, "Ġtherapist": 24636, "ĠThink": 11382, "ĠIowa": 9406, "regon": 8285, "uds": 24786, "Ġdifferent": 1180, "Ġbust": 13076, "ĠBash": 15743, "ĠScal": 34529, "Ġmess": 2085, "IAL": 12576, "Ġgrasping": 44787, "Ġeating": 6600, "Ġking": 5822, "ĠBabe": 49624, "Ġ120": 7982, "Ġtwin": 15203, "Billy": 49640, "ÂłÂłÂł": 33477, "Ġcrest": 36893, "Ġnested": 28376, "ation": 341, "Ġdisturb": 17037, "Ġzones": 14123, "ĠWrestling": 29662, "Ġresonate": 41523, "Asia": 38555, "Ġreusable": 42339, "ĠSr": 21714, "Ġfisheries": 41440, "ÑĢ": 21169, "Ġintensity": 12245, "htt": 2804, "brids": 40637, "Ġstiffness": 49586, "Ġapproach": 3164, "ountain": 18635, "Ġcomrade": 47998, "Ġconceptual": 23355, "Ġbreeds": 29580, "Ġspear": 17514, "Le": 3123, "ĠFinish": 32585, "Ġheating": 16930, "Ġwarned": 7728, "ĠNXT": 43308, "Ġbloggers": 30357, "ĠHun": 5900, "wrong": 36460, "ream": 1476, "Ġ2025": 32190, "ĠKaz": 16385, "Ġwinner": 8464, "Ġarteries": 45894, "Del": 13856, "Ġomission": 35725, "ĠBottle": 33608, "Ġversatile": 21362, "Ġearning": 13748, "ĠBlumenthal": 44888, "anos": 40015, "Ġsteel": 7771, "Ġgarn": 36167, "Ø©": 45632, "Ġmatchup": 18406, "Ġpacking": 24157, "586": 29796, "ĠRouse": 44122, "ĠGreenpeace": 42793, "Ġinertia": 48482, "ĠCran": 32919, "Ġcreamy": 27892, "Recommend": 41248, "ĠStud": 3604, "Lisa": 44203, "Wolf": 32069, "ĠCommun": 4440, "ĠSecondly": 34276, "iii": 15479, "Ġabuse": 5076, "ĠWard": 12150, "journal": 24891, "Ġaqu": 14839, "Ġmilitias": 28195, "ĠGood": 4599, "Ġrog": 47524, "Ġruin": 16866, "Ġpatriarchal": 42301, "Ġcrushed": 18577, "Ġresulted": 8724, "ĠNHS": 18183, "Ġthreatened": 8556, "ĠRew": 16140, "Ġversions": 6300, "ĠMurd": 20305, "Ġtranssexual": 41482, "Ġbe": 307, "sequently": 20415, "ĠNag": 15196, "Enlarge": 30952, "Ġswings": 26728, "Ġdirected": 7924, "Ġburned": 11544, "verty": 8077, "ãĤĵ": 22174, "Ġ287": 38721, "Ġhitherto": 45053, "Ġpopulations": 9684, "Ġreproduced": 31759, "Ġtease": 34691, "ammed": 10573, "ĠTelecom": 44021, "matched": 31409, "Ġmemory": 4088, "Ġdefendant": 11304, "Ġignore": 8856, "Ġsack": 23704, "Ġoffender": 19595, "Ġ660": 41717, "Ġ358": 41761, "ĠLimit": 27272, "Ġportfolio": 15320, "Ġclips": 19166, "ĠMayo": 32987, "Ġshootout": 34995, "kw": 46265, "Ġdresses": 27309, "ĠRodrigo": 46198, "Ġnotably": 14660, "stract": 8709, "Ġfrankly": 17813, ")\",": 42501, "ĠResearch": 4992, "Rect": 45474, "Ġ424": 48252, "Ġwardrobe": 35593, "oes": 3028, "Ġpaint": 7521, "ĠConver": 35602, "ĠCBC": 20244, "Ġsidew": 14910, "ĠCedar": 36758, "403": 31552, "Ġparticularly": 3573, "Ġdriveway": 33515, "Ġpreceding": 18148, "apor": 12687, "ae": 3609, "violence": 37502, "ĠNoah": 18394, ".)": 2014, "ĠCancer": 15523, "ĠAntar": 20290, "Bug": 25624, "icum": 39901, "ĠMaur": 18867, "ĠHonda": 20059, "Ġcheapest": 28918, "dp": 26059, "phones": 9708, "shot": 9442, "ulent": 15288, "Ã±a": 30644, "Ġadviser": 12534, "Ġbridges": 19432, "deep": 22089, "ts": 912, "Ġinstaller": 29124, "ĠAutob": 41735, "kaya": 35372, "nexus": 44520, "Browser": 46532, "Ġdips": 48904, "Ġballistic": 22681, "Ġqualities": 14482, "Dom": 24510, "887": 46660, "ment": 434, "Ġcontradicted": 44853, "ARCH": 31315, "Ġperforming": 9489, "\"],": 33116, "Ġsnail": 47374, "Ġeveryday": 10908, "arium": 17756, "Ġalthough": 3584, "Ġsoil": 9260, "Ġshaming": 46382, "Ġ273": 38549, "Ġunified": 22706, "Ġincreasing": 3649, "ĠVera": 44413, "Ġchecks": 8794, "Ġleveraging": 42389, "Ġexecution": 9706, "Ġunhappy": 19283, "+(": 33747, "Ġguitars": 32497, "Monster": 40872, "ĠBAS": 29809, "ings": 654, "ĠHunters": 31196, "Ġaff": 1527, "650": 17544, "illa": 5049, "clude": 9152, "Ġemphasized": 20047, "Ġcommerce": 19497, "Ġcheating": 21608, "products": 29498, "Ġconfirmed": 4999, "ĠON": 6177, "Ġindexed": 41497, "Ġhist": 1554, "537": 46096, "Ġitch": 49700, "Ġindisp": 33321, "ĠDPR": 41176, "ĠCustomers": 36707, "ĠPresidency": 35696, "Ġskirm": 37238, "ĠRoller": 24945, "Ġrestaur": 5190, "Frames": 35439, "Ġmosquitoes": 35573, "amus": 25509, "Ġcracks": 23217, "void": 19382, "Ġfif": 5515, "ĠKate": 16693, "Ġ^": 10563, "Ġacad": 5790, "ĠFr": 1305, "ĠAnarchy": 38899, "ĠJenner": 39760, "Ġtrop": 14673, "ĠContent": 14041, "Ġimpress": 14947, "Ġadminist": 2719, "attribute": 42348, "Ġawoke": 43363, "Recently": 24661, "hhh": 49126, "throp": 11360, "Ġfisher": 17685, "Ġrent": 5602, "Ġswung": 28507, "Ġtraitor": 35731, "Ġ51": 6885, "ĠAlchemist": 36084, "Ġcloaked": 45853, "Ġmandatory": 13677, "Ġproposition": 19168, "ĠSlot": 32026, "ĠCoral": 41390, "ĠKnicks": 24397, "Ġopin": 3631, "-$": 22799, "Ġreve": 2697, "Ġoverdoses": 49626, "ĠRecipe": 26694, "ĠFah": 27361, "407": 30120, "Ġultimate": 8713, "repe": 45956, "atron": 23484, "Runner": 49493, "()": 3419, "ingle": 17697, "ĠSurvivors": 45998, "Ġthirsty": 47124, "Ġbenefits": 4034, "ĠAnthrop": 32898, "ĠDaly": 43692, "ugi": 45659, "ĠWebs": 47736, "ĠLancaster": 38167, "Ġestab": 2803, "Ġwiki": 22719, "ĠOccup": 15227, "Ġportraits": 31725, "Ġdrainage": 37664, "Ġholding": 4769, "ĠJere": 10272, "Ġmassive": 4858, "uling": 16619, "Ġcoastline": 43415, "Ġreminis": 21484, "ĠRaven": 12552, "Invest": 19070, "Ġ392": 48207, "0000000": 24598, "agra": 45429, "ĠSnowden": 15015, "Ġpsychologists": 30842, "ĠDun": 5648, "direct": 12942, "Ġprotagonists": 39558, "ĠJamie": 17826, "CL": 5097, "Ġled": 2957, "Ġathlet": 6976, "Ġdepress": 41447, "Ġexecutes": 42985, "ĠCrimea": 21590, "Ġrocked": 36872, "Ġsincere": 17082, "Lu": 25596, "Ġfranchises": 28088, "Ġ698": 39861, "Ġsegment": 10618, "DonaldTrump": 27674, "Ġsympt": 6585, "ĠTiger": 17030, "Ġkillings": 17709, "Ġapparently": 5729, "Economic": 48307, "Ġeuro": 11063, "ĠWiFi": 24904, "Coin": 24387, "ip": 541, "Ġunsolved": 48180, "ulsion": 15204, "Ġarous": 22015, "post": 7353, "termin": 23705, "Ġtexting": 36634, "wer": 15448, "straight": 42729, "easy": 38171, "killers": 43492, "ĠRepublic": 2066, "ovable": 21985, "ĠPv": 18367, "Ġmisunderstand": 39653, "serious": 34009, "Ġtoward": 3812, "Ġshortfall": 41688, "ĠDOES": 38359, "ĠKra": 21553, "SIGN": 46224, "Ġregular": 3218, "Ġdownloadable": 41496, "WINDOWS": 33207, "Ġmedals": 28057, "Ġstakes": 21147, "bes": 12636, "ĠComprehensive": 40917, "Ġcompar": 4616, "Ġrectangular": 36954, "bit": 2545, "ĠReds": 14703, "Ġfailure": 5287, "St": 1273, "ĠVul": 25442, "Ġautomobiles": 44820, "431": 50080, "cium": 16910, "commun": 10709, "Ġacres": 16051, "Ġblink": 21019, "Stay": 25681, "Computer": 34556, "ĠWarehouse": 45927, "fs": 9501, "thia": 31079, "Ġenthusiast": 33471, "Invalid": 44651, "Ġinteractive": 14333, "hero": 11718, "metry": 41935, "Ġeste": 43577, "ĠMargaret": 19579, "ĠMirror": 17918, "Bull": 39549, "ĠCategory": 21743, "Ġlux": 10632, "ĠInteger": 34142, "ĠHulk": 22860, "Ġve": 1569, "Ġadmirable": 37959, "Ġot": 30972, "tl": 28781, "vis": 4703, "word": 4775, "Ġdepending": 6906, "Status": 19580, "Ġpizza": 14256, "ĠWC": 28387, "adies": 50192, "oline": 14453, "Ġneuroscience": 39738, "Ġall": 477, "ĠWilde": 45622, "Ġevenly": 21894, "ĠChes": 28250, "Ġblessed": 18259, "Ġtrooper": 41967, "ĠIPM": 50200, "âĢ²": 17478, "Ġcalibrated": 48050, "ĠWatkins": 36832, "Ġpard": 41746, "ĠWorcester": 50075, "Face": 32388, "emic": 5314, "ĠMavericks": 36002, "Ġcollective": 10098, "ochemical": 32864, "Ġseafood": 31473, "Ġcouncillors": 43321, "lp": 34431, "ĠPepsi": 38428, "vP": 47322, "ĠRanch": 24576, "Ġmoot": 41264, "220": 17572, "Ġformidable": 24599, "Ġtriumph": 15499, "ĠGiven": 11259, "arse": 17208, "Ġconcluding": 31083, "jug": 31761, "Ġprejud": 14696, "ĠTwitch": 23835, "liber": 33203, "Ġbelong": 5594, "chance": 39486, "Ġinterpret": 6179, "pai": 49712, "Ġmass": 2347, "Ġclues": 20195, "Ġappro": 1331, "ĠBeauty": 20774, "ĠRound": 10485, "ĠBre": 3719, "suit": 6063, "ĠBlades": 34776, "ĠGuest": 22358, "educated": 27317, "ĠArtemis": 36137, "impl": 23928, "Ġdiffers": 24242, "Buy": 14518, "Ġdam": 1801, "Ġpredetermined": 45574, "Ġoddly": 31414, "Ġshutting": 25136, "currency": 34415, "Ġwitnessed": 13923, "Ġregion": 3814, "ĠOpt": 13123, "Ġoats": 47009, "Ġdrowning": 32249, "777": 29331, "Ġurged": 11643, "ĠAngle": 42375, "Ġdiffuse": 42864, "cellence": 19801, "Ġbould": 47069, "ĠGenetic": 42295, "ĠTicket": 24014, "Ġarticulate": 32154, "Med": 9921, "Ġboosters": 47949, "reads": 40779, "ĠYoga": 32856, "Ġradioactive": 25521, "Stat": 17126, "Ġprinted": 10398, "ĠSacramento": 19375, "coded": 40976, "Ġnud": 26731, "ĠCurt": 19569, "ĠSetTextColor": 45003, "279": 26050, "ĠBene": 36585, "ĠNing": 37400, "Ġvide": 18784, "Ġspecific": 2176, "ĠFeast": 42936, "Ġ911": 16679, "Ġserpent": 33727, "ĠSpotlight": 49014, "proven": 42874, "AMA": 25087, "Ġpraises": 40221, "ĠGutenberg": 20336, "Ġcook": 4255, "illery": 14920, "Ġmum": 25682, "ikarp": 36850, "ĠDown": 5588, "ĠVatican": 19057, "Ġt": 256, "ĠMV": 32947, "tie": 36224, "AB": 6242, "%%%%": 36917, "Ġdiner": 47519, "ĠPedro": 28855, "PAR": 27082, "Ġimplicitly": 31821, "com": 785, "ĠWiki": 13078, "Ġfluor": 26967, "ĠMerrill": 40418, "ĠElection": 14219, "ĠPod": 17437, "Ġregiment": 34792, "ĠDraco": 31181, "ressing": 11697, "Upload": 41592, "urring": 14924, "ĠPog": 48974, "Test": 14402, "Ġ298": 37576, "ĠMastery": 37799, "Ġtouted": 28275, "TION": 24131, "Ġgiant": 6175, "Ġsubsequ": 6399, "Ġhomework": 26131, "Ġpol": 755, "ĠCreated": 15622, "ĠAngeles": 5652, "Ġ82": 9415, "Ġface": 1986, "Ġcomplains": 41165, "yk": 48361, "Ġmus": 1928, "itures": 20686, "Ġcharged": 5047, ".:": 11207, "erick": 41556, "levant": 14938, "Ġwhom": 4150, "luaj": 36473, "Ġcalculation": 17952, "Ġheadlights": 46783, "eland": 8822, "Ġerected": 28415, "Ġlosers": 29502, "sym": 37047, "ĠHydra": 31613, "Ġexecutives": 12353, "Ġrenewal": 22901, "Ġnotion": 9495, "ĠHart": 11345, "ĠChess": 25774, "Ġfmt": 46996, "ĠBok": 47390, "Ġinward": 29879, "renched": 23437, "Ġmotor": 5584, "Ġsensible": 20586, "ĠBlock": 9726, "ravis": 16956, "':": 10354, "ĠShad": 46961, "Ġdeport": 29489, "ĠKob": 23403, "way": 1014, "ãĤ¿": 23376, "sav": 39308, "Ġunavailable": 23485, "ĠKand": 50224, "ĠSul": 29357, "ZA": 34892, "Ġcomprising": 27918, "Ġjer": 13665, "Engineers": 28620, "ĠONLY": 22224, "atham": 37520, "DP": 6322, "Measure": 47384, "anges": 6231, "ptives": 43903, "ãĤ¦ãĤ¹": 34103, "Ġfocus": 2962, "Expl": 18438, "ĠVault": 23450, "Ġshel": 7497, "ĠGPU": 11362, "158": 21273, "Ġfrantically": 42352, "ĠSyndrome": 27109, "IDER": 41237, "ĠLithuania": 31295, "ĠBrus": 15507, "ĠNot": 1892, "Ġ<=": 19841, "Very": 16371, "Ġoxygen": 11863, "Before": 8421, "ustomed": 22646, "ĠKaty": 36715, "Ġanimated": 15108, "ĠDirectory": 27387, "Ġabdominal": 32692, "LCS": 29814, "Ġmidst": 15925, "Ġhailed": 27052, "Ġsomewhat": 6454, "Ġbindings": 34111, "your": 14108, "Ġtipped": 28395, "Ġfoil": 25501, "Ġbloc": 24003, "âĢ¦âĢ¦âĢ¦âĢ¦": 15864, "lat": 15460, "Ġshown": 3402, "Ġpara": 31215, "ĠNun": 39342, "Ġpolio": 42664, "Ġleadership": 5531, "ĠDiscovery": 23455, "Ġcontinuously": 17282, "Ġcreature": 7185, "Ġbathing": 39153, "Ġcombines": 21001, "Ġreceipts": 29946, "runners": 36740, "Ġtone": 8216, "Ġthief": 25906, "Ġlean": 10904, "Examples": 27730, "Ġrouter": 20264, "Ġgra": 7933, "Ġsnacks": 28487, "ĠAdvertisement": 39711, "Ġexemption": 19572, "Ġdont": 17666, "ĠMellon": 49808, "Ġincapable": 23402, "Business": 24749, "Ġcharacteristics": 9695, "461": 40652, "Ġdangerous": 4923, "Ġfollowers": 10569, "Ġfat": 3735, "ĠClare": 22736, "Guest": 42481, "Ġquicker": 20061, "Ġcigarettes": 17626, "ĠnaÃ¯ve": 41492, "Ġplaza": 42433, "ĠClinic": 26690, "Ġdome": 29500, "Ġtook": 1718, "Ġretained": 17383, "Ġgameplay": 11327, "want": 42949, "Ġfloor": 4314, "Ġthousands": 4138, "ĠShield": 10022, "Ġshut": 4423, "rator": 12392, "ANC": 20940, "luster": 48375, "Ġpiety": 44296, "Ġstrained": 30744, "ĠChosen": 39884, "ĠCutting": 40152, "atra": 26066, "ĠSas": 23771, "icket": 9715, "Ġgave": 2921, "ĠSahara": 46882, "ĠAnswers": 42612, "Ġdownstream": 33218, "Ġtents": 29804, "Terror": 40194, "ĠGustav": 43715, "Ġbehalf": 8378, "Urban": 46667, "SPA": 50087, "hh": 12337, "Ġfeedback": 7538, "ĠMohammed": 19773, "Ġexactly": 3446, "ĠOut": 3806, "Ġshoe": 17292, "Ġ2048": 36117, "docs": 31628, "Dep": 12156, "jured": 38608, "âĦ¢": 8151, "ĠFant": 8751, "Chapter": 14126, "ĠGlas": 21931, "Seg": 41030, "ĠBorderlands": 47071, "Ġadvoc": 5271, "Ġordained": 36777, "Ġ529": 49888, "Ġcave": 11527, "family": 17989, "Ġreforming": 40446, "ĠMLS": 13981, "Ġmourn": 25722, "izarre": 12474, "signed": 32696, "ophon": 48982, "Ġgets": 3011, "hee": 21067, "imal": 4402, "ĠSark": 36518, "Ġtremend": 11039, "Ġsynt": 7419, "ĠBi": 8436, "Ġsummarizes": 46145, "Ġvas": 34439, "Trigger": 48344, "Jennifer": 43187, "uyomi": 40012, "1987": 27301, "ĠClark": 11264, "Ġuterus": 41303, "Rober": 15924, "fired": 26803, "Ġshore": 15191, "uda": 15339, "ription": 2918, "aptic": 32963, "Ġidentification": 11795, "Ġimplant": 29016, "Ġabduct": 24827, "plain": 25638, "hyp": 36362, "Ġrebuilt": 30080, "ĠPoll": 12868, "operative": 27173, "Ġhonorable": 33655, "Ġlead": 1085, "rypt": 6012, "ĠFTA": 48076, "Ġultimately": 6165, "Ġ///": 34013, "GF": 21713, "Ġcirc": 2498, "Ġgear": 7733, "Ġnoises": 26782, "ĠKant": 29576, "Ġchewing": 36615, "Ġharmless": 23585, "Ġuncons": 13962, "ĠTelegram": 50203, "ĠWeld": 45156, "Ġdiffer": 13238, "Ġlegit": 6984, "ĠRadio": 8829, "Ġvariants": 17670, "Ġsped": 40424, "idency": 9147, "Ġexperiment": 6306, "Yes": 5297, "District": 44857, "ĠAdinida": 46600, "grass": 29815, "Gy": 44802, "ĠWalters": 43287, "ĠChrist": 1951, "Spons": 43522, "ĠMachine": 10850, "formed": 12214, "Get": 3855, "ĠSew": 27347, "Ġreceivers": 19137, "Ġsol": 1540, "Ġfulfilling": 26187, "Ġ175": 19038, "ust": 436, "Ġdiscontent": 39784, "Ġspec": 1020, "ĠAdded": 10687, "Ġpublicized": 42732, "Ġskillet": 41306, "Ġgentle": 10296, "Ġcher": 21382, "Ġexpress": 4911, "istas": 37503, "ĠTHIS": 12680, "idences": 44845, "esses": 44667, "ĠIM": 8959, "ÃĽÃĽ": 48396, "Ġdearly": 46379, "Ġvis": 1490, "Ġfeet": 3625, "BS": 4462, "Armor": 31512, "ĠTwe": 24205, "arre": 9624, "Ġan": 281, "Ġcattle": 17025, "ĠBah": 13081, "ĠManager": 9142, "Ġbearded": 42634, "Corn": 41389, "Ġcontested": 24163, "ĠMonday": 3321, "Ġ[*]": 36338, "ĠHDMI": 25499, "Ġ1896": 46723, "dom": 3438, "ĠExp": 5518, "Ġtariffs": 29240, "Ġhoard": 46960, "tx": 17602, "olutely": 16780, "ĠConverted": 43433, "80": 1795, "Ġsteril": 30429, "Ġstrugg": 3569, "scrib": 40075, "ĠExodus": 38557, "Ġcopper": 15317, "ĠAliens": 39301, "Ġcathedral": 41756, "essions": 6202, "Due": 22229, "î": 170, "Ġtravelling": 16574, "ĠAbyss": 16681, "1967": 42830, "Ġmarkets": 5939, "ĠWal": 6445, "Ġpractitioners": 24068, "ĠFiscal": 33522, "465": 42018, "{": 90, "hner": 22277, "Ġsimplify": 30276, "ĠHispanic": 16949, "Ġforecasts": 26119, "asser": 24929, "Ġwasteland": 46045, "complete": 20751, "Ġunaware": 17261, "orned": 26994, "ĠNurs": 28916, "Ġdiscriminatory": 27200, "ĠPharma": 41845, "ĠGrey": 13980, "Ġrobbery": 18609, "sen": 6248, "ĠFam": 16513, "orp": 16300, "ĠJuno": 49458, "Rev": 18009, "Throughout": 26797, "xon": 23813, "ĠVox": 28035, "Ġroast": 32595, "Ġindividual": 1981, "ĠArena": 10937, "Ġneurot": 42181, "ĠMET": 31243, "Ġdescended": 23667, "ĠChoice": 18502, "Ġfreeway": 39042, "Art": 8001, "ĠEggs": 40433, "ĠSalvation": 40814, "ĠChips": 45864, "Ġrepresentation": 10552, "ulas": 25283, "ĠApril": 3035, "JSON": 40386, "usable": 31979, "ĠLib": 7980, "ĠConce": 44530, "Ġbots": 29641, "Ġinappropriately": 49190, "Ġoverall": 4045, "ĠSom": 9995, "andering": 42454, "cerpt": 17040, "Ġpalpable": 45061, "Ġinjury": 5095, "ĠMages": 46796, "org": 2398, "food": 19425, "Ġrow": 5752, "Ġdisk": 11898, "Ġcolour": 9568, "ĠMiracle": 33292, "ĠLots": 25024, "Ġmerit": 17004, "chair": 16337, "ĠWIN": 25779, "Speed": 22785, "Ġstre": 1937, "Bu": 38374, "ĠREC": 19644, "OUR": 11698, "shape": 43358, "Ġres": 581, "Ġro": 686, "Ġvari": 5553, "Ġundertake": 25340, "Salt": 43061, "Dear": 20266, "ĠJae": 34521, "Ġsophistic": 12426, "Ġauthentic": 16425, "Local": 14565, "Ġpigs": 22333, "ĠDVDs": 35962, "Ġinsiders": 31594, "euro": 44252, "Ġgay": 5650, "igion": 17035, "Ġsag": 45229, "79": 3720, "ĠAkira": 46910, "aten": 36686, "ances": 1817, "RO": 13252, "Ġcontestant": 44047, "Tuesday": 26133, "Ġsplendid": 37196, "Ġ352": 44063, "Ġslowing": 21605, "charging": 31498, "Ġmirror": 10162, "ĠSeven": 13723, "sys": 17597, "sand": 38142, "AD": 2885, "patrick": 29615, "CLUS": 28332, "Ġoffshore": 18479, "ĠTay": 25569, "ĠDumb": 42989, "338": 28460, "ĠAus": 27545, "unch": 3316, "Ġrestriction": 17504, "reshold": 10126, "Ġcoal": 5655, "scription": 33584, "Ġorcs": 46448, "moderate": 47189, "Ġnighttime": 45324, "Ġbus": 1323, "itative": 12464, "ĠGerr": 45140, "ome": 462, "Ġdungeons": 33062, "Ġallergy": 36197, "ĠGorge": 48420, "Ġgem": 16840, "pection": 14978, "ĠBengal": 28630, "Ġderivatives": 28486, "CRIPTION": 40165, "pol": 16104, "ĠWash": 22892, "yna": 46434, "Ġhonoring": 38276, "igers": 34984, "powers": 30132, "Ġoptimizations": 41446, "Ġexperts": 6154, "ĠLancet": 45122, "ĠChim": 28466, "Ġherbal": 35867, "Ġtorment": 33378, "ĠIvy": 27386, "morning": 43911, "oried": 42058, "Ġplausible": 19756, "ĠEarthqu": 33842, "âĸĪâĸĪ": 9968, "Update": 10260, "Ġalcohol": 5548, "eb": 1765, "Phil": 18673, "Ġlvl": 33309, "Ġreaching": 8978, "ĠMonitoring": 37484, "cone": 49180, "Ġket": 22354, "ĠTrave": 43662, "jad": 38442, "Ġlinen": 41822, "application": 31438, "ĠPublisher": 28045, "Ġdarkest": 35995, "Ġsquats": 48871, "Ġresisting": 28943, "Ġintegrated": 11521, "360": 15277, ".}": 44587, "Ġunbelievably": 48943, "Ġ390": 33882, "monitor": 41143, "ĠGamerGate": 45358, "Ġdevelopmental": 23456, "Ġcreek": 39459, "Ġindict": 16056, "Ġ374": 49020, "ĠDefinitive": 46634, "Ġmaze": 31237, "Ġchic": 47180, "Ġrestoring": 25646, "ĠMillennials": 42828, "ĠBeckham": 37244, "Ġhairs": 32908, "ĠYelp": 44628, "Ĩ": 228, "ĠOpportun": 24922, "Ġrelapse": 47861, "behavior": 46571, "Ġairliner": 45110, "ĠCalder": 36468, "Ġapplaud": 22517, "Ġclinging": 40137, "edar": 44226, "ĠWP": 28993, "Ġexamining": 17247, "ĠHOUSE": 46586, "Ġartif": 14077, "Ġspelling": 24993, "mares": 23745, "seen": 15898, "ĠWicked": 42956, "Ġusername": 20579, "ĠIt": 632, "Ġlib": 9195, "translation": 41519, "ĠSabbath": 38402, "Ford": 37308, "Ġeconom": 1707, "ĠSoldier": 20104, "ates": 689, "ĠCriminal": 15531, "inate": 4559, "mer": 647, "Ġconspir": 29099, "ĠRobo": 39702, "Ġflushed": 44869, "ĠJM": 47726, "Ġtemple": 12505, "Ġwhipped": 30712, "Ġmounting": 17260, "Ġclutching": 48281, "Ġexplicitly": 11777, "ĠLeth": 34201, "ĠHitch": 36456, "},{\"": 8762, "Import": 20939, "ĠMary": 5335, "iatures": 42711, "ĠDism": 44955, "Ġboils": 40169, "Ġadop": 4344, "ĠPlants": 39269, "ĠGotham": 30129, "ASON": 36033, "Ġfil": 1226, "web": 12384, "Ġvictim": 3117, "ĠEc": 14003, "high": 8929, "Ġ1931": 34625, "umeric": 39223, "ĠSymbol": 38357, "ĠMongolia": 44364, "Ġgast": 21956, "ĠGoth": 18827, "ahn": 15386, "ounces": 45982, "ĠDriving": 32889, "ĠWinc": 35898, "ategories": 26129, "Ġenhanced": 13105, "Ġdrills": 26721, "Ġanthrop": 17911, "ĠFrog": 28328, "ctl": 34168, "Ġfalsehood": 37110, "ĠWales": 11769, "imeters": 31551, "push": 14689, "Ġfaintly": 49057, "icio": 46441, "snap": 45380, "ĠLOOK": 48045, "422": 44361, "ĠGuatem": 28171, "Ġ!": 5145, "ĠCosts": 36845, "CHAR": 38019, "ĠNorn": 34121, "ãĥĺ": 23363, "Ġspace": 2272, "ĠNobody": 15658, "Ġflora": 48037, "ridge": 12818, "Ġrocky": 26898, "ĠBarnett": 38174, "aciously": 45289, "ĠFans": 24964, "eworks": 19653, "Indiana": 49153, "inar": 22050, "ĠAnimals": 25390, "ĠHaley": 30646, "ĠGNOME": 40339, "ĠBra": 9718, "ĠPavel": 49612, "530": 38612, "ĠJohnson": 5030, "ĠAboriginal": 26432, "je": 18015, "ĠCongressman": 30700, "Â»": 17730, "ĠMedicare": 13771, "otiation": 21236, "Exp": 16870, "Ġformula": 10451, "ĠEdinburgh": 23475, "ported": 9213, "Ġprioritize": 32980, "ĠRodham": 41848, "Ġsummoned": 20056, "Ġscrambled": 34351, "Ġ(),": 29994, "Episode": 23758, "ĠCoord": 22819, "bone": 15992, "iel": 8207, "ĠCOUNTY": 41012, "ULAR": 37232, "Ġ1988": 12122, "Ġmisfortune": 41600, "Ġinconvenience": 31818, "ĠSeason": 7369, "Ġequal": 4961, "lyak": 43782, "Ġvia": 2884, "Ġpure": 5899, "Ġlooks": 3073, "igible": 26032, "ĠKov": 43326, "Ġoffers": 4394, "Ġsalsa": 49529, "Ġmetric": 18663, "Ġleast": 1551, "iveness": 6517, "ĠGlen": 20716, "Ġdiary": 26339, "ĠYang": 10998, "Catal": 39075, "ĠPhilosophy": 26099, "Ġheight": 6001, "Ġkidney": 21919, "thro": 26110, "ĠKushner": 24743, "Ġepoch": 36835, "Ġshimmer": 34493, "ĠBugs": 44991, "Mouse": 39643, "ĠPM": 3122, "Ġability": 2694, "Ġdug": 18735, "Ġdipping": 43144, "Ġblame": 8138, "Ġ1863": 47072, "iquid": 6394, "Ġsatur": 17373, "ĠRom": 3570, "izers": 11341, "Ġverge": 27373, "Ġtherefore": 4361, "Ġuntreated": 41539, "Ġbark": 21405, "ĠSung": 29802, "ĠLP": 18470, "ATION": 6234, "Ġmisc": 12747, "Ġduties": 10741, "ĠEmpire": 8065, "raint": 16947, "time": 2435, "410": 33289, "Ġteasing": 34417, "ĠLisp": 38593, "lde": 35209, "Ġaspiring": 31483, "Ġintentionally": 16464, "Ġunmarried": 39183, "ĠLand": 6379, "369": 30803, "Ġlogged": 18832, "Ġlimiting": 15637, "Ġpenchant": 41773, "raising": 32741, "ĠEagle": 18456, "72": 4761, "ĠeBay": 21698, "ĠDigest": 44255, "Ġwing": 8539, "Ġrecommended": 7151, "Ġtaped": 36114, "Det": 11242, "chrom": 28663, "Ġimplementations": 25504, "Ġbuffet": 44703, "ĠPER": 19878, "cules": 13930, "Ġneutrality": 20723, "Ġlooting": 39473, "Ġprincip": 26303, "ager": 3536, "of": 1659, "Ġtransitions": 27188, "detail": 49170, "Ġobjections": 21954, "Ġanalyze": 16602, "vag": 29821, "Ġthink": 892, "ĠDan": 6035, "ãĥ¼ãĥ«": 43353, "Ġelders": 27495, "613": 47512, "ĠBudd": 8578, "Ġworldly": 43249, "Index": 15732, "VD": 8898, "Ġstash": 38305, "ĠReporter": 25869, "ĠâĢ¦\"": 46385, "ĠKoran": 44097, "ĠHath": 36556, "Ġelector": 43191, "ĠForward": 19530, "ĠMadd": 21457, "ĠHall": 4789, "ĠGTX": 12646, "Ġincorporation": 43619, "Ġsubmission": 14498, "Ġmanages": 15314, "ĠRaleigh": 34520, "ĠPolaris": 41193, "Ġstrives": 37873, "bean": 14289, "ĠGaza": 11010, "Ã«": 26689, "ĠMessage": 16000, "ĠProject": 4935, "Ġmidrange": 49260, "Ġdiscomfort": 23597, "anooga": 42165, "Ġgin": 39733, "ĠAnimation": 23535, "Ġalliance": 12801, "Ġconferred": 39376, "ĠLaboratory": 18643, "berto": 32371, "Log": 11187, "Ġtax": 1687, "Ġmanure": 48577, "Ġgems": 23685, "arkable": 45543, "Ġsalty": 36021, "lio": 48590, "ĠJaime": 38028, "Ġ600": 10053, "Ġexecut": 3121, "OUS": 20958, "ĠALWAYS": 49576, "folk": 19956, "ENN": 34571, "JB": 47858, "Baltimore": 46139, "rik": 12602, "Ġadjusting": 22000, "Ġapprehended": 41979, "Ġhandwritten": 45916, ";;": 7665, "Ġbodily": 20734, "ĠAwards": 15434, "ĠCertificate": 27895, "Ĉ": 196, "ĠBulls": 18075, "ÂŃ": 3907, "agically": 39066, "ĠXeon": 45266, "ĠRecipes": 44229, "enf": 33701, "ĠIncrease": 25285, "Ġsupers": 22754, "specific": 11423, "Ġbinaries": 38640, "ĠAnyone": 17462, "Ġgraduation": 21571, "ĠBAR": 31597, "ĠEisenhower": 35015, "Ġconnecting": 14320, "Ġabandon": 6871, "bane": 20235, "Ġintellect": 7654, "Chelsea": 41053, "ĠCanterbury": 43581, "Ġdrib": 35003, "DM": 23127, "quad": 47003, "Ġindications": 26496, "ĠExplos": 33022, "ĠEston": 24633, "Ġconditioning": 21143, "Wind": 8731, "ĠNight": 5265, "ĠNemesis": 49885, "itary": 9331, "ĠGraph": 29681, "ĠRemove": 17220, "swing": 46737, "Ġjam": 16853, "Ġcandy": 18550, "ĠUseful": 49511, "ARDIS": 49608, "mort": 30171, "Ġfoll": 22752, "ĠEverywhere": 48201, "idth": 5649, "Ġattainment": 40375, "Ġbuckle": 44983, "ĠSuggest": 35042, "Ġwounds": 14129, "module": 21412, "oliath": 43009, "ĠKills": 23478, "Ġconstituted": 27276, "Ġconsumption": 7327, "e": 68, "ĠWARNING": 39410, "inguishable": 41726, "ĠâĶĤ": 19421, "idepress": 25895, "omnia": 37340, "Ġpass": 1208, "ĠAbuse": 24221, "Serial": 32634, "ĠUnknown": 16185, "ologists": 9251, "ifully": 17049, "Ġludicrous": 35214, "ĠFall": 7218, "Ġhurts": 20406, "hel": 2978, "1975": 38449, "Ġjuggling": 48097, "Ġcontradict": 18372, "ĠAlcohol": 21051, "Ġsolicit": 25063, "Mo": 16632, "Ġrect": 13621, "features": 40890, "Tonight": 43783, "ĠJordanian": 47820, "cultural": 30844, "Ġbothering": 41656, "Ġunthinkable": 39593, "ĠPrimary": 21087, "Ġtough": 5802, "ĠOptions": 18634, "go": 2188, "Preview": 48835, "ĠEnrique": 46879, "pire": 5111, "Ġstands": 6296, "ĠBrig": 16917, "groups": 24432, "ĠPDF": 12960, "Ġblurry": 44701, "Ġconsequences": 6948, "ĠConnor": 27599, "Ġhighlights": 11330, "ĠStrauss": 42971, "Ġmell": 33748, "ĠGiovanni": 50191, "aaa": 46071, "Ġsponge": 40206, "Ġintervening": 37294, "Ġtoll": 13592, "ĠIn": 554, "ĠFlynn": 14654, "Ġduly": 35489, "Iowa": 45186, "lc": 44601, "ĠHarrington": 48334, "amic": 18127, "Ġalternate": 13527, "ĠLatter": 34437, "ini": 5362, "simple": 36439, "Ġsenior": 4664, "Ġpessimistic": 46392, "essee": 10702, "ĠFI": 18930, "ĠSyl": 49481, "ĠWeasley": 49226, "ĠNV": 23973, "Ġintens": 17509, "Ġstrict": 7646, "LESS": 48481, "954": 48372, "ĠTrader": 41956, "ĠGonz": 17109, "iana": 7484, "ĠDRAG": 44779, "ĠIdol": 34392, "psc": 27566, "Ġfractured": 34051, "Ġemerging": 11823, "ĠStre": 9737, "ĠBrigade": 26012, "Ġreconcil": 40534, "ĠLindsay": 33127, "arc": 5605, "YP": 48232, "Ġgambling": 19029, "ĠBaal": 39648, "Ġ840": 48777, "ĠElvis": 35169, "ĠLumin": 43496, "ĠVill": 9757, "ĠATI": 38344, "ĠHatt": 48509, "ording": 1284, "Ġfunction": 2163, "Ġsqu": 2809, "icial": 6652, "ĠBritons": 43310, "ĠAlbania": 44615, "ĠKats": 47244, "ĠArrows": 43946, "Ġintern": 1788, "practice": 39541, "<?": 47934, "Ġhoney": 12498, "ast": 459, "Ġgeographically": 45703, "ijuana": 5343, "Fore": 16351, "Ġobviously": 6189, "ĠVald": 38552, "ĠAlliance": 10302, "Ġrecon": 8195, "Ġscriptures": 39782, "ĠPell": 43113, "endium": 49811, "Ġtrucks": 13960, "Ġremnant": 49332, "Ġoutpatient": 49335,
[...]
